{
  "version": "1.0",
  "truncation": null,
  "padding": null,
  "added_tokens": [
    {
      "id": 0,
      "content": "[UNK]",
      "single_word": false,
      "lstrip": false,
      "rstrip": false,
      "normalized": false,
      "special": true
    },
    {
      "id": 1,
      "content": "[PAD]",
      "single_word": false,
      "lstrip": false,
      "rstrip": false,
      "normalized": false,
      "special": true
    },
    {
      "id": 2,
      "content": "[SOS]",
      "single_word": false,
      "lstrip": false,
      "rstrip": false,
      "normalized": false,
      "special": true
    },
    {
      "id": 3,
      "content": "[EOS]",
      "single_word": false,
      "lstrip": false,
      "rstrip": false,
      "normalized": false,
      "special": true
    }
  ],
  "normalizer": null,
  "pre_tokenizer": {
    "type": "Whitespace"
  },
  "post_processor": null,
  "decoder": null,
  "model": {
    "type": "BPE",
    "dropout": null,
    "unk_token": "[UNK]",
    "continuing_subword_prefix": null,
    "end_of_word_suffix": null,
    "fuse_unk": false,
    "byte_fallback": false,
    "ignore_merges": false,
    "vocab": {
      "[UNK]": 0,
      "[PAD]": 1,
      "[SOS]": 2,
      "[EOS]": 3,
      "!": 4,
      "%": 5,
      "'": 6,
      "(": 7,
      ")": 8,
      "+": 9,
      ",": 10,
      "-": 11,
      ".": 12,
      "/": 13,
      "0": 14,
      "1": 15,
      "2": 16,
      "3": 17,
      "4": 18,
      "5": 19,
      "6": 20,
      "7": 21,
      "8": 22,
      "9": 23,
      ":": 24,
      ";": 25,
      "=": 26,
      "?": 27,
      "A": 28,
      "B": 29,
      "C": 30,
      "D": 31,
      "E": 32,
      "F": 33,
      "G": 34,
      "H": 35,
      "I": 36,
      "J": 37,
      "K": 38,
      "L": 39,
      "M": 40,
      "N": 41,
      "O": 42,
      "P": 43,
      "Q": 44,
      "R": 45,
      "S": 46,
      "T": 47,
      "U": 48,
      "V": 49,
      "W": 50,
      "X": 51,
      "Y": 52,
      "Z": 53,
      "[": 54,
      "]": 55,
      "^": 56,
      "a": 57,
      "b": 58,
      "c": 59,
      "d": 60,
      "e": 61,
      "f": 62,
      "g": 63,
      "h": 64,
      "i": 65,
      "j": 66,
      "k": 67,
      "l": 68,
      "m": 69,
      "n": 70,
      "o": 71,
      "p": 72,
      "q": 73,
      "r": 74,
      "s": 75,
      "t": 76,
      "u": 77,
      "v": 78,
      "w": 79,
      "x": 80,
      "y": 81,
      "z": 82,
      "¡": 83,
      "¿": 84,
      "×": 85,
      "à": 86,
      "æ": 87,
      "é": 88,
      "î": 89,
      "ö": 90,
      "Δ": 91,
      "ँ": 92,
      "क": 93,
      "त": 94,
      "द": 95,
      "म": 96,
      "र": 97,
      "स": 98,
      "ह": 99,
      "ा": 100,
      "ू": 101,
      "े": 102,
      "ै": 103,
      "—": 104,
      "⁺": 105,
      "⁻": 106,
      "in": 107,
      "an": 108,
      "ti": 109,
      "on": 110,
      "es": 111,
      "er": 112,
      "ing": 113,
      "en": 114,
      "th": 115,
      "or": 116,
      "and": 117,
      "al": 118,
      "re": 119,
      "ro": 120,
      "tion": 121,
      "at": 122,
      "st": 123,
      "el": 124,
      "to": 125,
      "the": 126,
      "ic": 127,
      "le": 128,
      "as": 129,
      "ou": 130,
      "ar": 131,
      "ac": 132,
      "ec": 133,
      "is": 134,
      "pro": 135,
      "it": 136,
      "ation": 137,
      "om": 138,
      "ent": 139,
      "ed": 140,
      "of": 141,
      "ol": 142,
      "uc": 143,
      "si": 144,
      "li": 145,
      "de": 146,
      "for": 147,
      "can": 148,
      "ve": 149,
      "tr": 150,
      "vi": 151,
      "res": 152,
      "ers": 153,
      "ment": 154,
      "ce": 155,
      "et": 156,
      "un": 157,
      "you": 158,
      "pl": 159,
      "ur": 160,
      "ab": 161,
      "con": 162,
      "he": 163,
      "ri": 164,
      "ith": 165,
      "ap": 166,
      "ag": 167,
      "us": 168,
      "ul": 169,
      "com": 170,
      "ain": 171,
      "di": 172,
      "op": 173,
      "ay": 174,
      "ess": 175,
      "ut": 176,
      "ex": 177,
      "with": 178,
      "ity": 179,
      "il": 180,
      "ow": 181,
      "ot": 182,
      "me": 183,
      "ch": 184,
      "ad": 185,
      "qu": 186,
      "ate": 187,
      "os": 188,
      "su": 189,
      "tic": 190,
      "ir": 191,
      "ts": 192,
      "im": 193,
      "ver": 194,
      "iz": 195,
      "og": 196,
      "am": 197,
      "are": 198,
      "sp": 199,
      "ter": 200,
      "ding": 201,
      "suc": 202,
      "hi": 203,
      "tive": 204,
      "The": 205,
      "ly": 206,
      "oc": 207,
      "ical": 208,
      "em": 209,
      "gh": 210,
      "be": 211,
      "od": 212,
      "ome": 213,
      "by": 214,
      "ell": 215,
      "tu": 216,
      "sist": 217,
      "such": 218,
      "per": 219,
      "ations": 220,
      "id": 221,
      "tel": 222,
      "provi": 223,
      "ance": 224,
      "king": 225,
      "tiv": 226,
      "tions": 227,
      "hel": 228,
      "ties": 229,
      "duc": 230,
      "ang": 231,
      "str": 232,
      "ies": 233,
      "ating": 234,
      "telli": 235,
      "ke": 236,
      "assist": 237,
      "ech": 238,
      "ces": 239,
      "cl": 240,
      "wh": 241,
      "wor": 242,
      "help": 243,
      "ind": 244,
      "In": 245,
      "ne": 246,
      "form": 247,
      "als": 248,
      "end": 249,
      "ting": 250,
      "comm": 251,
      "ons": 252,
      "olog": 253,
      "cre": 254,
      "that": 255,
      "our": 256,
      "ener": 257,
      "ff": 258,
      "ine": 259,
      "ks": 260,
      "ous": 261,
      "man": 262,
      "but": 263,
      "echn": 264,
      "enti": 265,
      "not": 266,
      "vol": 267,
      "rom": 268,
      "able": 269,
      "Ai": 270,
      "telliAi": 271,
      "IntelliAi": 272,
      "provide": 273,
      "cess": 274,
      "age": 275,
      "tran": 276,
      "ph": 277,
      "ves": 278,
      "ort": 279,
      "dis": 280,
      "comp": 281,
      "ence": 282,
      "techn": 283,
      "ore": 284,
      "mo": 285,
      "se": 286,
      "ere": 287,
      "all": 288,
      "te": 289,
      "fe": 290,
      "ning": 291,
      "ial": 292,
      "over": 293,
      "your": 294,
      "energ": 295,
      "ya": 296,
      "riya": 297,
      "energy": 298,
      "produc": 299,
      "ra": 300,
      "ust": 301,
      "ha": 302,
      "work": 303,
      "sy": 304,
      "vel": 305,
      "clu": 306,
      "ther": 307,
      "from": 308,
      "sol": 309,
      "inclu": 310,
      "ely": 311,
      "lear": 312,
      "pre": 313,
      "day": 314,
      "vir": 315,
      "tain": 316,
      "ving": 317,
      "port": 318,
      "eng": 319,
      "ect": 320,
      "und": 321,
      "cell": 322,
      "process": 323,
      "ma": 324,
      "like": 325,
      "cannot": 326,
      "ene": 327,
      "invol": 328,
      "bl": 329,
      "ach": 330,
      "ize": 331,
      "ments": 332,
      "ob": 333,
      "go": 334,
      "sor": 335,
      "cy": 336,
      "fic": 337,
      "time": 338,
      "ci": 339,
      "fer": 340,
      "out": 341,
      "exper": 342,
      "their": 343,
      "eff": 344,
      "into": 345,
      "ase": 346,
      "pe": 347,
      "stem": 348,
      "ost": 349,
      "rou": 350,
      "han": 351,
      "ry": 352,
      "its": 353,
      "velop": 354,
      "inter": 355,
      "qui": 356,
      "have": 357,
      "mb": 358,
      "pr": 359,
      "ant": 360,
      "oun": 361,
      "some": 362,
      "Some": 363,
      "ge": 364,
      "ques": 365,
      "ys": 366,
      "ds": 367,
      "med": 368,
      "ential": 369,
      "pa": 370,
      "ture": 371,
      "today": 372,
      "hile": 373,
      "expl": 374,
      "gan": 375,
      "ms": 376,
      "ser": 377,
      "ari": 378,
      "actions": 379,
      "trans": 380,
      "we": 381,
      "develop": 382,
      "col": 383,
      "organ": 384,
      "rough": 385,
      "ps": 386,
      "involves": 387,
      "onal": 388,
      "learning": 389,
      "par": 390,
      "ure": 391,
      "ress": 392,
      "ill": 393,
      "elec": 394,
      "disc": 395,
      "dat": 396,
      "cont": 397,
      "team": 398,
      "tivity": 399,
      "own": 400,
      "gn": 401,
      "acti": 402,
      "commun": 403,
      "ful": 404,
      "Let": 405,
      "resp": 406,
      "through": 407,
      "spec": 408,
      "How": 409,
      "thers": 410,
      "sh": 411,
      "recomm": 412,
      "recommend": 413,
      "ili": 414,
      "ace": 415,
      "ility": 416,
      "cul": 417,
      "ble": 418,
      "rel": 419,
      "pers": 420,
      "sup": 421,
      "act": 422,
      "elf": 423,
      "NA": 424,
      "main": 425,
      "data": 426,
      "ater": 427,
      "AI": 428,
      "vers": 429,
      "anger": 430,
      "ents": 431,
      "under": 432,
      "des": 433,
      "experi": 434,
      "more": 435,
      "envir": 436,
      "environ": 437,
      "struc": 438,
      "bo": 439,
      "ass": 440,
      "ack": 441,
      "ources": 442,
      "sk": 443,
      "sorry": 444,
      "electr": 445,
      "communic": 446,
      "br": 447,
      "bet": 448,
      "aging": 449,
      "using": 450,
      "map": 451,
      "May": 452,
      "au": 453,
      "alth": 454,
      "iques": 455,
      "ich": 456,
      "ople": 457,
      "people": 458,
      "techniques": 459,
      "ative": 460,
      "requi": 461,
      "ated": 462,
      "tri": 463,
      "technolog": 464,
      "ohan": 465,
      "set": 466,
      "gr": 467,
      "ght": 468,
      "anal": 469,
      "chang": 470,
      "isi": 471,
      "health": 472,
      "Banger": 473,
      "Pad": 474,
      "Priya": 475,
      "Rohan": 476,
      "also": 477,
      "mapriya": 478,
      "Mayur": 479,
      "Bangera": 480,
      "Padmapriya": 481,
      "fin": 482,
      "vari": 483,
      "system": 484,
      "bre": 485,
      "ness": 486,
      "formation": 487,
      "manage": 488,
      "self": 489,
      "ors": 490,
      "fy": 491,
      "nu": 492,
      "gro": 493,
      "tas": 494,
      "bu": 495,
      "well": 496,
      "rec": 497,
      "plan": 498,
      "ov": 499,
      "which": 500,
      "mind": 501,
      "ty": 502,
      "reg": 503,
      "hem": 504,
      "dec": 505,
      "ences": 506,
      "bi": 507,
      "ood": 508,
      "other": 509,
      "bon": 510,
      "ities": 511,
      "les": 512,
      "inn": 513,
      "skill": 514,
      "environment": 515,
      "bas": 516,
      "gu": 517,
      "ta": 518,
      "up": 519,
      "effec": 520,
      "ering": 521,
      "ory": 522,
      "brea": 523,
      "po": 524,
      "vities": 525,
      "ized": 526,
      "cells": 527,
      "activities": 528,
      "Others": 529,
      "plic": 530,
      "est": 531,
      "),": 532,
      "uring": 533,
      "impro": 534,
      "It": 535,
      "ling": 536,
      "ution": 537,
      "tim": 538,
      "loc": 539,
      "real": 540,
      "new": 541,
      "memb": 542,
      "include": 543,
      "hemical": 544,
      "fl": 545,
      "ary": 546,
      "hat": 547,
      "ency": 548,
      "tasks": 549,
      "explore": 550,
      "serv": 551,
      "discus": 552,
      "care": 553,
      "ud": 554,
      "tional": 555,
      "prom": 556,
      "analy": 557,
      "ose": 558,
      "izing": 559,
      "various": 560,
      "phys": 561,
      "ast": 562,
      "lead": 563,
      "hu": 564,
      "stand": 565,
      "ability": 566,
      "ide": 567,
      "ates": 568,
      "being": 569,
      "processes": 570,
      "lab": 571,
      "pri": 572,
      "reduc": 573,
      "meth": 574,
      "development": 575,
      "Their": 576,
      "tra": 577,
      "skills": 578,
      "dri": 579,
      "iti": 580,
      "tual": 581,
      "requires": 582,
      "ple": 583,
      "While": 584,
      "has": 585,
      "led": 586,
      "resources": 587,
      "apolog": 588,
      "apologize": 589,
      "min": 590,
      "ertain": 591,
      "labor": 592,
      "back": 593,
      "chemical": 594,
      "ns": 595,
      "sion": 596,
      "cur": 597,
      "ever": 598,
      "mar": 599,
      "ods": 600,
      "including": 601,
      "grow": 602,
      "enh": 603,
      "chain": 604,
      "transp": 605,
      "understand": 606,
      "discuss": 607,
      "prof": 608,
      "unc": 609,
      "ound": 610,
      "imm": 611,
      "ven": 612,
      "war": 613,
      "life": 614,
      "ural": 615,
      "innov": 616,
      "opport": 617,
      "based": 618,
      "opportun": 619,
      "pow": 620,
      "atom": 621,
      "action": 622,
      "management": 623,
      "fi": 624,
      "ific": 625,
      "diff": 626,
      "They": 627,
      "physical": 628,
      "human": 629,
      "pres": 630,
      "tively": 631,
      "What": 632,
      "here": 633,
      "ici": 634,
      "ateg": 635,
      "personal": 636,
      "cri": 637,
      "kn": 638,
      "one": 639,
      "syn": 640,
      "plications": 641,
      "ox": 642,
      "ilities": 643,
      "regul": 644,
      "pot": 645,
      "ual": 646,
      "els": 647,
      "achi": 648,
      "offer": 649,
      "providing": 650,
      "achie": 651,
      "oy": 652,
      "ital": 653,
      "gen": 654,
      "sa": 655,
      "dig": 656,
      "ghts": 657,
      "ear": 658,
      "tics": 659,
      "strateg": 660,
      "thing": 661,
      "they": 662,
      "where": 663,
      "comput": 664,
      "potential": 665,
      "ign": 666,
      "information": 667,
      "actic": 668,
      "ision": 669,
      "pos": 670,
      "sec": 671,
      "creating": 672,
      "guid": 673,
      "posi": 674,
      "soc": 675,
      "methods": 676,
      "car": 677,
      "cent": 678,
      "cap": 679,
      "ten": 680,
      "identi": 681,
      "support": 682,
      "communication": 683,
      "ativity": 684,
      "cal": 685,
      "ep": 686,
      "ong": 687,
      "than": 688,
      "ics": 689,
      "growth": 690,
      "opportunities": 691,
      "gene": 692,
      "intelli": 693,
      "essi": 694,
      "lex": 695,
      "divers": 696,
      "maintain": 697,
      "buil": 698,
      "intellig": 699,
      "DNA": 700,
      "ld": 701,
      "abilities": 702,
      "hy": 703,
      "way": 704,
      "ens": 705,
      "ele": 706,
      "ices": 707,
      "ism": 708,
      "use": 709,
      "goals": 710,
      "strategies": 711,
      "ects": 712,
      "while": 713,
      "enc": 714,
      "thes": 715,
      "alg": 716,
      "stor": 717,
      "stress": 718,
      "ween": 719,
      "between": 720,
      "essential": 721,
      "collabor": 722,
      "technology": 723,
      "ist": 724,
      "see": 725,
      "solut": 726,
      "making": 727,
      "members": 728,
      "foc": 729,
      "net": 730,
      "light": 731,
      "sub": 732,
      "feed": 733,
      "co": 734,
      "pol": 735,
      "ures": 736,
      "ze": 737,
      "cle": 738,
      "water": 739,
      "atter": 740,
      "differ": 741,
      "stud": 742,
      "practic": 743,
      "zing": 744,
      "insi": 745,
      "orith": 746,
      "itation": 747,
      "sure": 748,
      "ody": 749,
      "algorith": 750,
      "feedback": 751,
      "Th": 752,
      "guidance": 753,
      "gre": 754,
      "ins": 755,
      "onom": 756,
      "reactions": 757,
      "experiences": 758,
      "improve": 759,
      "met": 760,
      "ings": 761,
      "exp": 762,
      "play": 763,
      "ages": 764,
      "ficial": 765,
      "promot": 766,
      "path": 767,
      "intelligence": 768,
      "bec": 769,
      "cust": 770,
      "gl": 771,
      "active": 772,
      "custom": 773,
      "mon": 774,
      "sign": 775,
      "ogn": 776,
      "assistance": 777,
      "mole": 778,
      "alleng": 779,
      "setting": 780,
      "digital": 781,
      "ax": 782,
      "ros": 783,
      "applications": 784,
      "insights": 785,
      "algorithms": 786,
      "virtual": 787,
      "systems": 788,
      "He": 789,
      "down": 790,
      "nat": 791,
      "enab": 792,
      "proble": 793,
      "challeng": 794,
      "need": 795,
      "mul": 796,
      "used": 797,
      "dic": 798,
      "har": 799,
      "them": 800,
      "enew": 801,
      "professi": 802,
      "professional": 803,
      "body": 804,
      "ines": 805,
      "aining": 806,
      "tical": 807,
      "Ab": 808,
      "gg": 809,
      "sur": 810,
      "effici": 811,
      "solutely": 812,
      "Absolutely": 813,
      "lang": 814,
      "nuc": 815,
      "osy": 816,
      "imp": 817,
      "structure": 818,
      "power": 819,
      "langu": 820,
      "tw": 821,
      "antu": 822,
      "ish": 823,
      "iting": 824,
      "creativity": 825,
      "enhance": 826,
      "antum": 827,
      "fost": 828,
      "gener": 829,
      "ond": 830,
      "mental": 831,
      "adv": 832,
      "who": 833,
      "volution": 834,
      "achine": 835,
      "osystem": 836,
      "anc": 837,
      "rele": 838,
      "electrons": 839,
      "auto": 840,
      "synthes": 841,
      "Ear": 842,
      "may": 843,
      "mod": 844,
      "sm": 845,
      "oriti": 846,
      "vid": 847,
      "users": 848,
      "imag": 849,
      "predic": 850,
      "However": 851,
      "innovation": 852,
      "positive": 853,
      "Earth": 854,
      "ia": 855,
      "la": 856,
      "tificial": 857,
      "thical": 858,
      "resili": 859,
      "dist": 860,
      "osph": 861,
      "changes": 862,
      "fra": 863,
      "pic": 864,
      "ris": 865,
      "tre": 866,
      "ances": 867,
      "acc": 868,
      "cep": 869,
      "enewable": 870,
      "VR": 871,
      "mer": 872,
      "val": 873,
      "list": 874,
      "ends": 875,
      "relations": 876,
      "leading": 877,
      "maintaining": 878,
      "gra": 879,
      "optim": 880,
      "owing": 881,
      "hip": 882,
      "prefer": 883,
      "finit": 884,
      "know": 885,
      "lim": 886,
      "contri": 887,
      "social": 888,
      "um": 889,
      "arge": 890,
      "complex": 891,
      "change": 892,
      "mark": 893,
      "different": 894,
      "Hey": 895,
      "gate": 896,
      "sive": 897,
      "ization": 898,
      "tives": 899,
      "productivity": 900,
      "ross": 901,
      "pur": 902,
      "aying": 903,
      "specific": 904,
      "reducing": 905,
      "ars": 906,
      "ecosystem": 907,
      "urity": 908,
      "sust": 909,
      "bloc": 910,
      "transpar": 911,
      "bus": 912,
      "fut": 913,
      "how": 914,
      "ming": 915,
      "sci": 916,
      "inding": 917,
      "inves": 918,
      "asking": 919,
      "respons": 920,
      "design": 921,
      "achieve": 922,
      "study": 923,
      "language": 924,
      "bal": 925,
      "ening": 926,
      "aries": 927,
      "ular": 928,
      "adap": 929,
      "sustain": 930,
      "cis": 931,
      "por": 932,
      "iness": 933,
      "what": 934,
      "works": 935,
      "obj": 936,
      "environmental": 937,
      "identify": 938,
      "hol": 939,
      "just": 940,
      "my": 941,
      "oring": 942,
      "read": 943,
      "ases": 944,
      "ety": 945,
      "divid": 946,
      "diversity": 947,
      "building": 948,
      "natural": 949,
      "line": 950,
      "then": 951,
      "isms": 952,
      "about": 953,
      "beha": 954,
      "forms": 955,
      "colle": 956,
      "bonds": 957,
      "ertainly": 958,
      "molecul": 959,
      "autom": 960,
      "resilience": 961,
      "market": 962,
      "behavi": 963,
      "Certainly": 964,
      "Oh": 965,
      "cer": 966,
      "fact": 967,
      "ru": 968,
      "incre": 969,
      "enhan": 970,
      "proj": 971,
      "sions": 972,
      "move": 973,
      "genetic": 974,
      "nucle": 975,
      "gal": 976,
      "kchain": 977,
      "pec": 978,
      "ste": 979,
      "success": 980,
      "ological": 981,
      "production": 982,
      "prin": 983,
      "numb": 984,
      "prioriti": 985,
      "carbon": 986,
      "seeking": 987,
      "problem": 988,
      "imagine": 989,
      "future": 990,
      "do": 991,
      "func": 992,
      "get": 993,
      "patter": 994,
      "sen": 995,
      "red": 996,
      "omes": 997,
      "ext": 998,
      "technologies": 999,
      "patterns": 1000,
      "RNA": 1001,
      "training": 1002,
      "une": 1003,
      "recogn": 1004,
      "collaboration": 1005,
      "pes": 1006,
      "tips": 1007,
      "acy": 1008,
      "prot": 1009,
      "resul": 1010,
      "perform": 1011,
      "partic": 1012,
      "contin": 1013,
      "species": 1014,
      "nec": 1015,
      "ues": 1016,
      "individ": 1017,
      "ref": 1018,
      "art": 1019,
      "confl": 1020,
      "empl": 1021,
      "feel": 1022,
      "going": 1023,
      "boo": 1024,
      "two": 1025,
      "contribut": 1026,
      "conflic": 1027,
      "Mind": 1028,
      "cr": 1029,
      "job": 1030,
      "mor": 1031,
      "mater": 1032,
      "role": 1033,
      "acid": 1034,
      "solu": 1035,
      "St": 1036,
      "ef": 1037,
      "those": 1038,
      "ice": 1039,
      "proach": 1040,
      "consist": 1041,
      "ries": 1042,
      "open": 1043,
      "overn": 1044,
      "blown": 1045,
      "fulness": 1046,
      "brain": 1047,
      "services": 1048,
      "adapt": 1049,
      "solutions": 1050,
      "fa": 1051,
      "mic": 1052,
      "ditional": 1053,
      "spir": 1054,
      "space": 1055,
      "hips": 1056,
      "culture": 1057,
      "nutri": 1058,
      "finitely": 1059,
      ").": 1060,
      "avi": 1061,
      "mus": 1062,
      "ord": 1063,
      "ply": 1064,
      "aph": 1065,
      "exer": 1066,
      "practi": 1067,
      "pair": 1068,
      "centr": 1069,
      "synthesis": 1070,
      "practice": 1071,
      "ev": 1072,
      "fac": 1073,
      "tis": 1074,
      "across": 1075,
      "sible": 1076,
      "super": 1077,
      "occur": 1078,
      "create": 1079,
      "make": 1080,
      "interactions": 1081,
      "analyze": 1082,
      "understanding": 1083,
      "enabling": 1084,
      "behavior": 1085,
      "bound": 1086,
      "fri": 1087,
      "ition": 1088,
      "titu": 1089,
      "educ": 1090,
      "ples": 1091,
      "discover": 1092,
      "effective": 1093,
      "challenges": 1094,
      "relationships": 1095,
      "sources": 1096,
      "ue": 1097,
      "alter": 1098,
      "tool": 1099,
      "quantum": 1100,
      "osomes": 1101,
      "please": 1102,
      "practicing": 1103,
      "small": 1104,
      "number": 1105,
      "dro": 1106,
      "reaction": 1107,
      "proper": 1108,
      "prote": 1109,
      "det": 1110,
      "trust": 1111,
      "construc": 1112,
      "meditation": 1113,
      "healthcare": 1114,
      "mindfulness": 1115,
      "jour": 1116,
      "ran": 1117,
      "sit": 1118,
      "ination": 1119,
      "let": 1120,
      "oming": 1121,
      "qual": 1122,
      "sues": 1123,
      "world": 1124,
      "products": 1125,
      "solving": 1126,
      "engaging": 1127,
      "perspec": 1128,
      "customer": 1129,
      "picture": 1130,
      "exercis": 1131,
      "cop": 1132,
      "ded": 1133,
      "others": 1134,
      "tise": 1135,
      "acts": 1136,
      "key": 1137,
      "neu": 1138,
      "produce": 1139,
      "relax": 1140,
      "AR": 1141,
      "so": 1142,
      "vis": 1143,
      "dem": 1144,
      "been": 1145,
      "medical": 1146,
      "ressing": 1147,
      "minim": 1148,
      "law": 1149,
      "limate": 1150,
      "business": 1151,
      "molecules": 1152,
      "don": 1153,
      "each": 1154,
      "wind": 1155,
      "andling": 1156,
      "place": 1157,
      "chrom": 1158,
      "ology": 1159,
      "engage": 1160,
      "expertise": 1161,
      "tail": 1162,
      "effectively": 1163,
      "pathy": 1164,
      "balance": 1165,
      "education": 1166,
      "tools": 1167,
      "Im": 1168,
      "ions": 1169,
      "mech": 1170,
      "ric": 1171,
      "vision": 1172,
      "ands": 1173,
      "econom": 1174,
      "uni": 1175,
      "overall": 1176,
      "ysis": 1177,
      "planet": 1178,
      "focus": 1179,
      "subst": 1180,
      "sustainable": 1181,
      "mechan": 1182,
      "Handling": 1183,
      "bility": 1184,
      "food": 1185,
      "joy": 1186,
      "lation": 1187,
      "machine": 1188,
      "ner": 1189,
      "enable": 1190,
      "without": 1191,
      "sequ": 1192,
      "efficiency": 1193,
      "models": 1194,
      "enhanc": 1195,
      "By": 1196,
      "You": 1197,
      "bene": 1198,
      "fu": 1199,
      "renewable": 1200,
      "ved": 1201,
      "ould": 1202,
      "deep": 1203,
      "user": 1204,
      "import": 1205,
      "blood": 1206,
      "shap": 1207,
      "fiel": 1208,
      "encour": 1209,
      "This": 1210,
      "were": 1211,
      "eness": 1212,
      "simul": 1213,
      "definitely": 1214,
      "plat": 1215,
      "concer": 1216,
      "when": 1217,
      "communicating": 1218,
      "decision": 1219,
      "transport": 1220,
      "Ad": 1221,
      "Ar": 1222,
      "Can": 1223,
      "Good": 1224,
      "tur": 1225,
      "inte": 1226,
      "online": 1227,
      "thre": 1228,
      "consu": 1229,
      "conver": 1230,
      "empathy": 1231,
      "ount": 1232,
      "employ": 1233,
      "consists": 1234,
      "overnment": 1235,
      "climate": 1236,
      "ping": 1237,
      "thin": 1238,
      "legal": 1239,
      "ucial": 1240,
      "force": 1241,
      "ilit": 1242,
      "sugg": 1243,
      "pati": 1244,
      "poses": 1245,
      "promote": 1246,
      "gluc": 1247,
      "listening": 1248,
      "project": 1249,
      "crucial": 1250,
      "integr": 1251,
      "ption": 1252,
      "rang": 1253,
      "rol": 1254,
      "ard": 1255,
      "ite": 1256,
      "ury": 1257,
      "uses": 1258,
      "motiv": 1259,
      "media": 1260,
      "supply": 1261,
      "gram": 1262,
      "break": 1263,
      "ways": 1264,
      "ew": 1265,
      "find": 1266,
      "hind": 1267,
      "ials": 1268,
      "pi": 1269,
      "zy": 1270,
      "sts": 1271,
      "irst": 1272,
      "high": 1273,
      "reality": 1274,
      "physically": 1275,
      "become": 1276,
      "low": 1277,
      "mal": 1278,
      "rap": 1279,
      "ones": 1280,
      "there": 1281,
      "atures": 1282,
      "program": 1283,
      "resol": 1284,
      "concentr": 1285,
      "behind": 1286,
      "context": 1287,
      "immune": 1288,
      "osphere": 1289,
      "morning": 1290,
      "Col": 1291,
      "Finding": 1292,
      "del": 1293,
      "navi": 1294,
      "ses": 1295,
      "revolution": 1296,
      "asing": 1297,
      "trends": 1298,
      "comb": 1299,
      "ily": 1300,
      "very": 1301,
      "cycle": 1302,
      "control": 1303,
      "breaking": 1304,
      "regular": 1305,
      "books": 1306,
      "titude": 1307,
      "concerns": 1308,
      "AT": 1309,
      "Hi": 1310,
      "lay": 1311,
      "ted": 1312,
      "rop": 1313,
      "deter": 1314,
      "within": 1315,
      "indust": 1316,
      "neur": 1317,
      "transm": 1318,
      "respon": 1319,
      "oxy": 1320,
      "capabilities": 1321,
      "thanks": 1322,
      "preferences": 1323,
      "ATP": 1324,
      "En": 1325,
      "bac": 1326,
      "ios": 1327,
      "ight": 1328,
      "ll": 1329,
      "less": 1330,
      "mut": 1331,
      "uals": 1332,
      "wa": 1333,
      "ants": 1334,
      "access": 1335,
      "sition": 1336,
      "concep": 1337,
      "add": 1338,
      "ouse": 1339,
      "radi": 1340,
      "suppor": 1341,
      "atoms": 1342,
      "hydro": 1343,
      "elebr": 1344,
      "transparency": 1345,
      "events": 1346,
      "situ": 1347,
      "glucose": 1348,
      "Hell": 1349,
      "ca": 1350,
      "ify": 1351,
      "mes": 1352,
      "repair": 1353,
      "elect": 1354,
      "dep": 1355,
      "ossi": 1356,
      "clari": 1357,
      "allowing": 1358,
      "electron": 1359,
      "atomic": 1360,
      "security": 1361,
      "promoting": 1362,
      "becoming": 1363,
      "risk": 1364,
      "responses": 1365,
      "facilit": 1366,
      "Artificial": 1367,
      "Hello": 1368,
      "bit": 1369,
      "ip": 1370,
      "lo": 1371,
      "mass": 1372,
      "theory": 1373,
      "tric": 1374,
      "etings": 1375,
      "illegal": 1376,
      "charge": 1377,
      "numer": 1378,
      "analyzing": 1379,
      "personalized": 1380,
      "computing": 1381,
      "grav": 1382,
      "objects": 1383,
      "automation": 1384,
      "individuals": 1385,
      "boundaries": 1386,
      "properties": 1387,
      "thinking": 1388,
      "numerous": 1389,
      "Bloc": 1390,
      "clear": 1391,
      "fid": 1392,
      "int": 1393,
      "stages": 1394,
      "actively": 1395,
      "oper": 1396,
      "spe": 1397,
      "manu": 1398,
      "share": 1399,
      "isions": 1400,
      "offering": 1401,
      "relaxation": 1402,
      "platforms": 1403,
      "oxygen": 1404,
      "Blockchain": 1405,
      "Gra": 1406,
      "cry": 1407,
      "during": 1408,
      "long": 1409,
      "ule": 1410,
      "vent": 1411,
      "ending": 1412,
      "rout": 1413,
      "lec": 1414,
      "proving": 1415,
      "dead": 1416,
      "mentation": 1417,
      "confid": 1418,
      "ney": 1419,
      "transform": 1420,
      "electric": 1421,
      "plants": 1422,
      "taking": 1423,
      "analytics": 1424,
      "ideas": 1425,
      "driven": 1426,
      "signific": 1427,
      "conflicts": 1428,
      "Improving": 1429,
      "enhancing": 1430,
      "manufact": 1431,
      "ders": 1432,
      "gating": 1433,
      "hab": 1434,
      "pu": 1435,
      "was": 1436,
      "any": 1437,
      "ection": 1438,
      "agne": 1439,
      "dise": 1440,
      "cyb": 1441,
      "recor": 1442,
      "take": 1443,
      "effects": 1444,
      "driving": 1445,
      "immer": 1446,
      "known": 1447,
      "oxide": 1448,
      "saf": 1449,
      "foster": 1450,
      "fostering": 1451,
      "journey": 1452,
      "range": 1453,
      "situations": 1454,
      "significant": 1455,
      "19": 1456,
      "av": 1457,
      "cos": 1458,
      "celebr": 1459,
      "tal": 1460,
      "oration": 1461,
      "artificial": 1462,
      "ecting": 1463,
      "uch": 1464,
      "fore": 1465,
      "organisms": 1466,
      "diverse": 1467,
      "chromosomes": 1468,
      "substances": 1469,
      "Ap": 1470,
      "First": 1471,
      "Government": 1472,
      "We": 1473,
      "face": 1474,
      "fossi": 1475,
      "sun": 1476,
      "atory": 1477,
      "lege": 1478,
      "ise": 1479,
      "liz": 1480,
      "heat": 1481,
      "dioxide": 1482,
      "que": 1483,
      "emo": 1484,
      "assistant": 1485,
      "good": 1486,
      "outcom": 1487,
      "ground": 1488,
      "membran": 1489,
      "computers": 1490,
      "purposes": 1491,
      "friend": 1492,
      "altern": 1493,
      "dedic": 1494,
      "concentration": 1495,
      "College": 1496,
      "determin": 1497,
      "Grade": 1498,
      "ather": 1499,
      "cor": 1500,
      "cour": 1501,
      "hic": 1502,
      "kes": 1503,
      "enjoy": 1504,
      "round": 1505,
      "ats": 1506,
      "stay": 1507,
      "issions": 1508,
      "vehic": 1509,
      "ership": 1510,
      "ource": 1511,
      "respect": 1512,
      "shar": 1513,
      "healthy": 1514,
      "reduce": 1515,
      "thank": 1516,
      "practices": 1517,
      "impact": 1518,
      "science": 1519,
      "steps": 1520,
      "protons": 1521,
      "material": 1522,
      "effor": 1523,
      "benef": 1524,
      "integrity": 1525,
      "rapid": 1526,
      "industries": 1527,
      "manufacturing": 1528,
      "fossil": 1529,
      "outcomes": 1530,
      "De": 1531,
      "cat": 1532,
      "cost": 1533,
      "hand": 1534,
      "lines": 1535,
      "sing": 1536,
      "ature": 1537,
      "issues": 1538,
      "ently": 1539,
      "agues": 1540,
      "ids": 1541,
      "content": 1542,
      "bring": 1543,
      "types": 1544,
      "improving": 1545,
      "traits": 1546,
      "earch": 1547,
      "plays": 1548,
      "exercises": 1549,
      "demand": 1550,
      "sequence": 1551,
      "zymes": 1552,
      "responsible": 1553,
      "depend": 1554,
      "publ": 1555,
      "Gre": 1556,
      "aut": 1557,
      "den": 1558,
      "fol": 1559,
      "large": 1560,
      "mRNA": 1561,
      "much": 1562,
      "nam": 1563,
      "wast": 1564,
      "ans": 1565,
      "ream": 1566,
      "prog": 1567,
      "app": 1568,
      "agn": 1569,
      "again": 1570,
      "exam": 1571,
      "preci": 1572,
      "locating": 1573,
      "innovative": 1574,
      "century": 1575,
      "powered": 1576,
      "colleagues": 1577,
      "nucleus": 1578,
      "sensor": 1579,
      "brainstor": 1580,
      "smaller": 1581,
      "perspectives": 1582,
      "visual": 1583,
      "minimizing": 1584,
      "transmit": 1585,
      "friendly": 1586,
      "vehicles": 1587,
      "Every": 1588,
      "found": 1589,
      "her": 1590,
      "mess": 1591,
      "odiversity": 1592,
      "pop": 1593,
      "sch": 1594,
      "aly": 1595,
      "sta": 1596,
      "stars": 1597,
      "view": 1598,
      "ots": 1599,
      "streng": 1600,
      "exploration": 1601,
      "assess": 1602,
      "analysis": 1603,
      "servation": 1604,
      "priv": 1605,
      "traditional": 1606,
      "ancial": 1607,
      "gratitude": 1608,
      "ecosystems": 1609,
      "mythical": 1610,
      "aphase": 1611,
      "neutr": 1612,
      "important": 1613,
      "immersive": 1614,
      "Greetings": 1615,
      "Everything": 1616,
      "Man": 1617,
      "Vir": 1618,
      "ger": 1619,
      "gam": 1620,
      "oto": 1621,
      "wr": 1622,
      "rewar": 1623,
      "ster": 1624,
      "plas": 1625,
      "approach": 1626,
      "beg": 1627,
      "ologist": 1628,
      "product": 1629,
      "processing": 1630,
      "interactive": 1631,
      "environments": 1632,
      "planning": 1633,
      "breathing": 1634,
      "powers": 1635,
      "achieving": 1636,
      "soci": 1637,
      "princi": 1638,
      "occurs": 1639,
      "placement": 1640,
      "economic": 1641,
      "suggest": 1642,
      "patient": 1643,
      "clarify": 1644,
      "safety": 1645,
      "dedication": 1646,
      "against": 1647,
      "Managing": 1648,
      "ati": 1649,
      "equi": 1650,
      "evolution": 1651,
      "miti": 1652,
      "now": 1653,
      "pto": 1654,
      "onic": 1655,
      "sid": 1656,
      "absor": 1657,
      "conduc": 1658,
      "term": 1659,
      "authen": 1660,
      "financial": 1661,
      "inner": 1662,
      "enhouse": 1663,
      "uncover": 1664,
      "synap": 1665,
      "valu": 1666,
      "Staying": 1667,
      "membrane": 1668,
      "sharing": 1669,
      "sched": 1670,
      "authentic": 1671,
      "Machine": 1672,
      "dup": 1673,
      "ee": 1674,
      "ft": 1675,
      "ging": 1676,
      "hob": 1677,
      "uous": 1678,
      "infl": 1679,
      "story": 1680,
      "ecurity": 1681,
      "istic": 1682,
      "off": 1683,
      "ersecurity": 1684,
      "cons": 1685,
      "connec": 1686,
      "ult": 1687,
      "ulation": 1688,
      "distr": 1689,
      "char": 1690,
      "creative": 1691,
      "solar": 1692,
      "involve": 1693,
      "verse": 1694,
      "mindset": 1695,
      "clean": 1696,
      "greenhouse": 1697,
      "monit": 1698,
      "impacts": 1699,
      "treat": 1700,
      "continuous": 1701,
      "concepts": 1702,
      "deadlines": 1703,
      "benefits": 1704,
      "privacy": 1705,
      "principles": 1706,
      "cam": 1707,
      "ig": 1708,
      "stim": 1709,
      "scal": 1710,
      "tem": 1711,
      "inform": 1712,
      "infra": 1713,
      "ests": 1714,
      "ensure": 1715,
      "ormon": 1716,
      "alized": 1717,
      "reli": 1718,
      "atten": 1719,
      "level": 1720,
      "activ": 1721,
      "sim": 1722,
      "trac": 1723,
      "urb": 1724,
      "abol": 1725,
      "contain": 1726,
      "diagn": 1727,
      "area": 1728,
      "cellular": 1729,
      "transactions": 1730,
      "require": 1731,
      "finding": 1732,
      "decisions": 1733,
      "every": 1734,
      "secre": 1735,
      "metabol": 1736,
      "multi": 1737,
      "anced": 1738,
      "optimize": 1739,
      "invest": 1740,
      "response": 1741,
      "quality": 1742,
      "laws": 1743,
      "businesses": 1744,
      "engagement": 1745,
      "programs": 1746,
      "crypto": 1747,
      "routine": 1748,
      "cataly": 1749,
      "waste": 1750,
      "brainstorming": 1751,
      "infrastructure": 1752,
      "ormones": 1753,
      "3D": 1754,
      "RI": 1755,
      "Udup": 1756,
      "bur": 1757,
      "bies": 1758,
      "flex": 1759,
      "gi": 1760,
      "gative": 1761,
      "mom": 1762,
      "rup": 1763,
      "staying": 1764,
      "research": 1765,
      "unloc": 1766,
      "emer": 1767,
      "managing": 1768,
      "phosph": 1769,
      "learn": 1770,
      "cities": 1771,
      "question": 1772,
      "exploring": 1773,
      "developing": 1774,
      "related": 1775,
      "descri": 1776,
      "ledge": 1777,
      "mart": 1778,
      "present": 1779,
      "onomous": 1780,
      "improvement": 1781,
      "expect": 1782,
      "release": 1783,
      "scienti": 1784,
      "ready": 1785,
      "marketing": 1786,
      "necess": 1787,
      "proaching": 1788,
      "field": 1789,
      "navigate": 1790,
      "mutual": 1791,
      "Approaching": 1792,
      "hobbies": 1793,
      "Udupi": 1794,
      "flexi": 1795,
      "Renewable": 1796,
      "could": 1797,
      "dru": 1798,
      "eu": 1799,
      "gment": 1800,
      "gency": 1801,
      "atm": 1802,
      "ased": 1803,
      "unding": 1804,
      "conservation": 1805,
      "consid": 1806,
      "come": 1807,
      "dies": 1808,
      "tures": 1809,
      "features": 1810,
      "sych": 1811,
      "therap": 1812,
      "prevent": 1813,
      "leadership": 1814,
      "build": 1815,
      "network": 1816,
      "signals": 1817,
      "prioritize": 1818,
      "recognizing": 1819,
      "performance": 1820,
      "bacter": 1821,
      "cybersecurity": 1822,
      "Virtual": 1823,
      "uncovering": 1824,
      "drug": 1825,
      "DH": 1826,
      "Ex": 1827,
      "Lear": 1828,
      "lish": 1829,
      "matter": 1830,
      "tiliz": 1831,
      "replic": 1832,
      "oud": 1833,
      "activity": 1834,
      "accur": 1835,
      "dev": 1836,
      "unable": 1837,
      "ablish": 1838,
      "conn": 1839,
      "condi": 1840,
      "direc": 1841,
      "areas": 1842,
      "emissions": 1843,
      "peri": 1844,
      "creation": 1845,
      "medic": 1846,
      "translation": 1847,
      "organiz": 1848,
      "special": 1849,
      "specify": 1850,
      "establish": 1851,
      "service": 1852,
      "early": 1853,
      "secure": 1854,
      "seek": 1855,
      "harness": 1856,
      "advance": 1857,
      "distri": 1858,
      "investi": 1859,
      "achievements": 1860,
      "identifying": 1861,
      "recognition": 1862,
      "particles": 1863,
      "acids": 1864,
      "protein": 1865,
      "proteins": 1866,
      "efforts": 1867,
      "public": 1868,
      "absorb": 1869,
      "necessary": 1870,
      "Learning": 1871,
      "conditions": 1872,
      "Not": 1873,
      "Qu": 1874,
      "aking": 1875,
      "aff": 1876,
      "ethical": 1877,
      "ious": 1878,
      "mot": 1879,
      "pain": 1880,
      "vant": 1881,
      "roles": 1882,
      "top": 1883,
      "arch": 1884,
      "ises": 1885,
      "propos": 1886,
      "mentors": 1887,
      "appreci": 1888,
      "oph": 1889,
      "osed": 1890,
      "negative": 1891,
      "phen": 1892,
      "sever": 1893,
      "workforce": 1894,
      "organized": 1895,
      "illing": 1896,
      "experience": 1897,
      "experiments": 1898,
      "breaks": 1899,
      "realistic": 1900,
      "uncertain": 1901,
      "relevant": 1902,
      "predictive": 1903,
      "fraud": 1904,
      "account": 1905,
      "knowledge": 1906,
      "blockchain": 1907,
      "refers": 1908,
      "materials": 1909,
      "constructive": 1910,
      "encouraging": 1911,
      "turn": 1912,
      "resolution": 1913,
      "iosis": 1914,
      "distractions": 1915,
      "bacteria": 1916,
      "Pro": 1917,
      "home": 1918,
      "itive": 1919,
      "mory": 1920,
      "pt": 1921,
      "yond": 1922,
      "estion": 1923,
      "stream": 1924,
      "entertain": 1925,
      "side": 1926,
      "detail": 1927,
      "exc": 1928,
      "oting": 1929,
      "memory": 1930,
      "stru": 1931,
      "kehol": 1932,
      "echnology": 1933,
      "phase": 1934,
      "disci": 1935,
      "disrup": 1936,
      "separ": 1937,
      "engine": 1938,
      "developed": 1939,
      "biodiversity": 1940,
      "focused": 1941,
      "networks": 1942,
      "pathog": 1943,
      "enables": 1944,
      "needed": 1945,
      "predict": 1946,
      "contributed": 1947,
      "planets": 1948,
      "mechanisms": 1949,
      "motivated": 1950,
      "deli": 1951,
      "agnetic": 1952,
      "courses": 1953,
      "stakehol": 1954,
      "temper": 1955,
      "cryptogr": 1956,
      "connect": 1957,
      "Quantum": 1958,
      "discipl": 1959,
      "stakeholders": 1960,
      "Bi": 1961,
      "Cl": 1962,
      "Fost": 1963,
      "awar": 1964,
      "bro": 1965,
      "cogn": 1966,
      "fr": 1967,
      "hal": 1968,
      "ive": 1969,
      "mi": 1970,
      "put": 1971,
      "selec": 1972,
      "ters": 1973,
      "instruc": 1974,
      "icy": 1975,
      "proc": 1976,
      "try": 1977,
      "resource": 1978,
      "meas": 1979,
      "sue": 1980,
      "spi": 1981,
      "histor": 1982,
      "before": 1983,
      "tiveness": 1984,
      "cultiv": 1985,
      "experimentation": 1986,
      "both": 1987,
      "boost": 1988,
      "ensuring": 1989,
      "great": 1990,
      "cept": 1991,
      "optimizing": 1992,
      "factors": 1993,
      "fail": 1994,
      "detection": 1995,
      "fuels": 1996,
      "simulations": 1997,
      "Enzymes": 1998,
      "neutrons": 1999,
      "equip": 2000,
      "influ": 2001,
      "informed": 2002,
      "expectations": 2003,
      "several": 2004,
      "Fostering": 2005,
      "awareness": 2006,
      "around": 2007,
      "dy": 2008,
      "gases": 2009,
      "his": 2010,
      "idi": 2011,
      "ken": 2012,
      "log": 2013,
      "no": 2014,
      "non": 2015,
      "oce": 2016,
      "pH": 2017,
      "tam": 2018,
      "intu": 2019,
      "inspi": 2020,
      "ese": 2021,
      "aling": 2022,
      "remain": 2023,
      "states": 2024,
      "lip": 2025,
      "track": 2026,
      "apps": 2027,
      "beyond": 2028,
      "class": 2029,
      "motion": 2030,
      "transfer": 2031,
      "transcri": 2032,
      "respond": 2033,
      "mainten": 2034,
      "better": 2035,
      "students": 2036,
      "challenging": 2037,
      "harm": 2038,
      "risks": 2039,
      "movement": 2040,
      "nuclei": 2041,
      "functions": 2042,
      "reflec": 2043,
      "spirits": 2044,
      "three": 2045,
      "electrom": 2046,
      "facilitating": 2047,
      "electricity": 2048,
      "disease": 2049,
      "levels": 2050,
      "activation": 2051,
      "organizations": 2052,
      "investigate": 2053,
      "proposed": 2054,
      "tamper": 2055,
      "maintenance": 2056,
      "Sun": 2057,
      "That": 2058,
      "Un": 2059,
      "air": 2060,
      "bri": 2061,
      "dam": 2062,
      "post": 2063,
      "tar": 2064,
      "wide": 2065,
      "instru": 2066,
      "erm": 2067,
      "oro": 2068,
      "atch": 2069,
      "toge": 2070,
      "ational": 2071,
      "resist": 2072,
      "ets": 2073,
      "agric": 2074,
      "dial": 2075,
      "ilos": 2076,
      "ells": 2077,
      "working": 2078,
      "interests": 2079,
      "medi": 2080,
      "past": 2081,
      "weather": 2082,
      "organs": 2083,
      "organic": 2084,
      "part": 2085,
      "respir": 2086,
      "type": 2087,
      "times": 2088,
      "promise": 2089,
      "focusing": 2090,
      "coord": 2091,
      "poll": 2092,
      "green": 2093,
      "generate": 2094,
      "transparent": 2095,
      "increasing": 2096,
      "printing": 2097,
      "resulting": 2098,
      "contribute": 2099,
      "universe": 2100,
      "radiation": 2101,
      "namics": 2102,
      "messeng": 2103,
      "rewarding": 2104,
      "monitoring": 2105,
      "diagnos": 2106,
      "flexibility": 2107,
      "atmosphere": 2108,
      "accountability": 2109,
      "engineering": 2110,
      "temperature": 2111,
      "target": 2112,
      "together": 2113,
      "Au": 2114,
      "Bu": 2115,
      "Com": 2116,
      "bots": 2117,
      "dr": 2118,
      "dou": 2119,
      "eti": 2120,
      "gas": 2121,
      "gly": 2122,
      "otic": 2123,
      "whel": 2124,
      "ysi": 2125,
      "anim": 2126,
      "react": 2127,
      "rounding": 2128,
      "start": 2129,
      "total": 2130,
      "artic": 2131,
      "acks": 2132,
      "omen": 2133,
      "division": 2134,
      "imple": 2135,
      "implications": 2136,
      "tele": 2137,
      "transition": 2138,
      "physi": 2139,
      "competi": 2140,
      "modi": 2141,
      "overwhel": 2142,
      "raw": 2143,
      "grad": 2144,
      "drive": 2145,
      "pressure": 2146,
      "needs": 2147,
      "reading": 2148,
      "prioritizing": 2149,
      "function": 2150,
      "particip": 2151,
      "individual": 2152,
      "discovered": 2153,
      "shaping": 2154,
      "transportation": 2155,
      "neurons": 2156,
      "waves": 2157,
      "transforming": 2158,
      "sunlight": 2159,
      "single": 2160,
      "autonomous": 2161,
      "beginner": 2162,
      "ologists": 2163,
      "stimul": 2164,
      "metabolism": 2165,
      "moment": 2166,
      "medicine": 2167,
      "phenomen": 2168,
      "historical": 2169,
      "harmful": 2170,
      "af": 2171,
      "atives": 2172,
      "cast": 2173,
      "crop": 2174,
      "equ": 2175,
      "evol": 2176,
      "even": 2177,
      "far": 2178,
      "ho": 2179,
      "mis": 2180,
      "oth": 2181,
      "oking": 2182,
      "ralized": 2183,
      "smo": 2184,
      "smart": 2185,
      "zation": 2186,
      "along": 2187,
      "ree": 2188,
      "lement": 2189,
      "lever": 2190,
      "entralized": 2191,
      "lif": 2192,
      "forces": 2193,
      "ilding": 2194,
      "iring": 2195,
      "ogue": 2196,
      "lying": 2197,
      "ometric": 2198,
      "stry": 2199,
      "keep": 2200,
      "compon": 2201,
      "allow": 2202,
      "interven": 2203,
      "organization": 2204,
      "relativity": 2205,
      "dest": 2206,
      "plans": 2207,
      "decentralized": 2208,
      "biological": 2209,
      "ward": 2210,
      "computer": 2211,
      "problems": 2212,
      "sense": 2213,
      "conflict": 2214,
      "Star": 2215,
      "ditionally": 2216,
      "nutrients": 2217,
      "friends": 2218,
      "detect": 2219,
      "perspective": 2220,
      "fields": 2221,
      "Additionally": 2222,
      "revolutionize": 2223,
      "addressing": 2224,
      "supportive": 2225,
      "habit": 2226,
      "records": 2227,
      "costs": 2228,
      "otosynthesis": 2229,
      "writing": 2230,
      "synaptic": 2231,
      "devices": 2232,
      "entertainment": 2233,
      "selection": 2234,
      "dialogue": 2235,
      "Building": 2236,
      "Al": 2237,
      "Pl": 2238,
      "Set": 2239,
      "aily": 2240,
      "bel": 2241,
      "bar": 2242,
      "coun": 2243,
      "cule": 2244,
      "daily": 2245,
      "ga": 2246,
      "happ": 2247,
      "if": 2248,
      "iel": 2249,
      "lost": 2250,
      "ring": 2251,
      "sessi": 2252,
      "tut": 2253,
      "vous": 2254,
      "xim": 2255,
      "this": 2256,
      "ators": 2257,
      "stu": 2258,
      "state": 2259,
      "forward": 2260,
      "resh": 2261,
      "convers": 2262,
      "ophy": 2263,
      "amin": 2264,
      "among": 2265,
      "history": 2266,
      "ocation": 2267,
      "formul": 2268,
      "ffic": 2269,
      "technical": 2270,
      "yourself": 2271,
      "solution": 2272,
      "obal": 2273,
      "questions": 2274,
      "recommendations": 2275,
      "electrical": 2276,
      "travel": 2277,
      "traffic": 2278,
      "critical": 2279,
      "identity": 2280,
      "called": 2281,
      "molecule": 2282,
      "surrounding": 2283,
      "music": 2284,
      "tissues": 2285,
      "address": 2286,
      "gravity": 2287,
      "confidence": 2288,
      "progress": 2289,
      "unlocking": 2290,
      "distribu": 2291,
      "articles": 2292,
      "smooth": 2293,
      "Setting": 2294,
      "sessions": 2295,
      "During": 2296,
      "Just": 2297,
      "PR": 2298,
      "Ph": 2299,
      "dele": 2300,
      "fam": 2301,
      "fund": 2302,
      "gain": 2303,
      "lin": 2304,
      "lit": 2305,
      "lands": 2306,
      "oid": 2307,
      "ray": 2308,
      "yog": 2309,
      "inj": 2310,
      "inary": 2311,
      "inspir": 2312,
      "anti": 2313,
      "anom": 2314,
      "thou": 2315,
      "orig": 2316,
      "recharge": 2317,
      "ately": 2318,
      "ards": 2319,
      "acing": 2320,
      "adjust": 2321,
      "embr": 2322,
      "many": 2323,
      "composed": 2324,
      "producing": 2325,
      "viruses": 2326,
      "observ": 2327,
      "serious": 2328,
      "organism": 2329,
      "fulf": 2330,
      "task": 2331,
      "oxid": 2332,
      "elements": 2333,
      "These": 2334,
      "global": 2335,
      "objec": 2336,
      "college": 2337,
      "increase": 2338,
      "movements": 2339,
      "functional": 2340,
      "feelings": 2341,
      "aphic": 2342,
      "educational": 2343,
      "unique": 2344,
      "nervous": 2345,
      "consum": 2346,
      "convert": 2347,
      "shared": 2348,
      "strengthen": 2349,
      "multiple": 2350,
      "appreciation": 2351,
      "details": 2352,
      "amino": 2353,
      ".,": 2354,
      "As": 2355,
      "CRI": 2356,
      "My": 2357,
      "SPR": 2358,
      "ath": 2359,
      "cit": 2360,
      "dden": 2361,
      "gaining": 2362,
      "oor": 2363,
      "sof": 2364,
      "inste": 2365,
      "another": 2366,
      "esting": 2367,
      "ession": 2368,
      "thor": 2369,
      "ories": 2370,
      "ally": 2371,
      "att": 2372,
      "acces": 2373,
      "ited": 2374,
      "demon": 2375,
      "rest": 2376,
      "contr": 2377,
      "rib": 2378,
      "expres": 2379,
      "ically": 2380,
      "cloud": 2381,
      "helpful": 2382,
      "common": 2383,
      "compound": 2384,
      "fications": 2385,
      "interact": 2386,
      "colysis": 2387,
      "shop": 2388,
      "communicate": 2389,
      "minds": 2390,
      "ledger": 2391,
      "profession": 2392,
      "fied": 2393,
      "critic": 2394,
      "same": 2395,
      "safe": 2396,
      "position": 2397,
      "calend": 2398,
      "axies": 2399,
      "nature": 2400,
      "efficiently": 2401,
      "frame": 2402,
      "values": 2403,
      "lists": 2404,
      "blocking": 2405,
      "coping": 2406,
      "19th": 2407,
      "alternative": 2408,
      "dependent": 2409,
      "foll": 2410,
      "sensors": 2411,
      "mitigate": 2412,
      "valuable": 2413,
      "schedule": 2414,
      "archit": 2415,
      "cultivate": 2416,
      "totally": 2417,
      "physiological": 2418,
      "phenomena": 2419,
      "components": 2420,
      "thoughts": 2421,
      "CRISPR": 2422,
      "citric": 2423,
      "demonstr": 2424,
      "professionals": 2425,
      "An": 2426,
      "FG": 2427,
      "GFG": 2428,
      "Main": 2429,
      "doc": 2430,
      "danger": 2431,
      "grou": 2432,
      "los": 2433,
      "mag": 2434,
      "osition": 2435,
      "psych": 2436,
      "pically": 2437,
      "wond": 2438,
      "yiel": 2439,
      "inating": 2440,
      "ern": 2441,
      "alent": 2442,
      "rece": 2443,
      "remot": 2444,
      "stant": 2445,
      "eler": 2446,
      "asp": 2447,
      "asser": 2448,
      "istics": 2449,
      "menting": 2450,
      "pler": 2451,
      "head": 2452,
      "aphy": 2453,
      "ops": 2454,
      "oded": 2455,
      "ellular": 2456,
      "neural": 2457,
      "created": 2458,
      "displacement": 2459,
      "composition": 2460,
      "most": 2461,
      "productive": 2462,
      "taining": 2463,
      "involved": 2464,
      "NADH": 2465,
      "author": 2466,
      "required": 2467,
      "ovalent": 2468,
      "typically": 2469,
      "biom": 2470,
      "location": 2471,
      "regulate": 2472,
      "element": 2473,
      "storage": 2474,
      "networking": 2475,
      "subj": 2476,
      "polar": 2477,
      "metals": 2478,
      "expressing": 2479,
      "hard": 2480,
      "distant": 2481,
      "acceler": 2482,
      "projects": 2483,
      "feeling": 2484,
      "book": 2485,
      "exercise": 2486,
      "employee": 2487,
      "combination": 2488,
      "layer": 2489,
      "gravitation": 2490,
      "cosmic": 2491,
      "period": 2492,
      "advancements": 2493,
      "topics": 2494,
      "uncertainty": 2495,
      "respiration": 2496,
      "glycolysis": 2497,
      "conversations": 2498,
      "family": 2499,
      "yoga": 2500,
      "calendars": 2501,
      "GFGC": 2502,
      "Maintaining": 2503,
      "remote": 2504,
      "Ec": 2505,
      "Hormones": 2506,
      "Sp": 2507,
      "ae": 2508,
      "best": 2509,
      "fur": 2510,
      "fil": 2511,
      "vate": 2512,
      "visi": 2513,
      "wiz": 2514,
      "yru": 2515,
      "ann": 2516,
      "orials": 2517,
      "ormal": 2518,
      "ale": 2519,
      "requ": 2520,
      "road": 2521,
      "ator": 2522,
      "elves": 2523,
      "ecast": 2524,
      "often": 2525,
      "forecast": 2526,
      "chann": 2527,
      "qua": 2528,
      "amount": 2529,
      "emit": 2530,
      "assistants": 2531,
      "mood": 2532,
      "workers": 2533,
      "parent": 2534,
      "communities": 2535,
      "assem": 2536,
      "changing": 2537,
      "guide": 2538,
      "flow": 2539,
      "collaborative": 2540,
      "poly": 2541,
      "block": 2542,
      "galaxies": 2543,
      "result": 2544,
      "continent": 2545,
      "economy": 2546,
      "fusion": 2547,
      "importance": 2548,
      "intro": 2549,
      "recording": 2550,
      "celebrate": 2551,
      "answ": 2552,
      "authenticity": 2553,
      "scientists": 2554,
      "pathogens": 2555,
      "ocean": 2556,
      "evolving": 2557,
      "Starting": 2558,
      "tutorials": 2559,
      "criticism": 2560,
      "docu": 2561,
      "dangerous": 2562,
      "yruvate": 2563,
      "Einste": 2564,
      "binding": 2565,
      "egg": 2566,
      "four": 2567,
      "hor": 2568,
      "host": 2569,
      "mys": 2570,
      "ped": 2571,
      "pass": 2572,
      "rates": 2573,
      "sis": 2574,
      "inqui": 2575,
      "initi": 2576,
      "ane": 2577,
      "onto": 2578,
      "err": 2579,
      "orb": 2580,
      "robo": 2581,
      "attr": 2582,
      "arity": 2583,
      "trace": 2584,
      "conven": 2585,
      "hether": 2586,
      "otechnology": 2587,
      "meiosis": 2588,
      "chat": 2589,
      "amples": 2590,
      "spending": 2591,
      "hidden": 2592,
      "heli": 2593,
      "philos": 2594,
      "inclusive": 2595,
      "cycl": 2596,
      "cient": 2597,
      "fertiliz": 2598,
      "manageable": 2599,
      "local": 2600,
      "discussions": 2601,
      "wards": 2602,
      "humans": 2603,
      "coding": 2604,
      "metaphase": 2605,
      "nuclear": 2606,
      "generating": 2607,
      "disturb": 2608,
      "finite": 2609,
      "holds": 2610,
      "myster": 2611,
      "enhances": 2612,
      "prioritization": 2613,
      "nutritional": 2614,
      "discovery": 2615,
      "mechanics": 2616,
      "shape": 2617,
      "consumer": 2618,
      "motivation": 2619,
      "hydrogen": 2620,
      "celebrating": 2621,
      "emotional": 2622,
      "treatment": 2623,
      "requirements": 2624,
      "Examples": 2625,
      "exciting": 2626,
      "discipline": 2627,
      "classical": 2628,
      "pollution": 2629,
      "messengers": 2630,
      "double": 2631,
      "funda": 2632,
      "inspiration": 2633,
      "origin": 2634,
      "consumption": 2635,
      "expression": 2636,
      "introduc": 2637,
      "Einstein": 2638,
      "inquiries": 2639,
      "Ac": 2640,
      "Bec": 2641,
      "Each": 2642,
      "Ge": 2643,
      "HR": 2644,
      "More": 2645,
      "aer": 2646,
      "cen": 2647,
      "cut": 2648,
      "cross": 2649,
      "due": 2650,
      "ges": 2651,
      "gri": 2652,
      "ion": 2653,
      "mil": 2654,
      "must": 2655,
      "othing": 2656,
      "sw": 2657,
      "sle": 2658,
      "anaphase": 2659,
      "ancient": 2660,
      "only": 2661,
      "ording": 2662,
      "align": 2663,
      "reproduction": 2664,
      "rotransmit": 2665,
      "ata": 2666,
      "thema": 2667,
      "thems": 2668,
      "arrange": 2669,
      "aces": 2670,
      "prophase": 2671,
      "sitions": 2672,
      "living": 2673,
      "def": 2674,
      "mentaries": 2675,
      "right": 2676,
      "aged": 2677,
      "ulture": 2678,
      "ains": 2679,
      "ared": 2680,
      "elling": 2681,
      "assisting": 2682,
      "transitions": 2683,
      "raises": 2684,
      "maxim": 2685,
      "goods": 2686,
      "outdo": 2687,
      "effect": 2688,
      "undergo": 2689,
      "decom": 2690,
      "reduced": 2691,
      "method": 2692,
      "curr": 2693,
      "opportunity": 2694,
      "fix": 2695,
      "icious": 2696,
      "regulatory": 2697,
      "things": 2698,
      "policy": 2699,
      "express": 2700,
      "surface": 2701,
      "tware": 2702,
      "according": 2703,
      "relationship": 2704,
      "sustainability": 2705,
      "supervis": 2706,
      "encourage": 2707,
      "lower": 2708,
      "example": 2709,
      "foundation": 2710,
      "tracking": 2711,
      "emergency": 2712,
      "considering": 2713,
      "replication": 2714,
      "separate": 2715,
      "deliver": 2716,
      "cognitive": 2717,
      "transcription": 2718,
      "electromagnetic": 2719,
      "agriculture": 2720,
      "after": 2721,
      "studies": 2722,
      "software": 2723,
      "ribosomes": 2724,
      "frameworks": 2725,
      "demonstrating": 2726,
      "gravitational": 2727,
      "wizard": 2728,
      "documentaries": 2729,
      "Moreover": 2730,
      "themselves": 2731,
      "Cre": 2732,
      "City": 2733,
      "Cellular": 2734,
      "Gene": 2735,
      "On": 2736,
      "Pom": 2737,
      "Pri": 2738,
      "Techn": 2739,
      "bes": 2740,
      "ek": 2741,
      "kan": 2742,
      "kers": 2743,
      "ler": 2744,
      "lat": 2745,
      "lov": 2746,
      "mun": 2747,
      "mine": 2748,
      "mary": 2749,
      "nic": 2750,
      "rate": 2751,
      "scan": 2752,
      "tect": 2753,
      "wal": 2754,
      "yoor": 2755,
      "inf": 2756,
      "enkan": 2757,
      "refer": 2758,
      "replacement": 2759,
      "recept": 2760,
      "roc": 2761,
      "stability": 2762,
      "tosis": 2763,
      "assion": 2764,
      "issue": 2765,
      "prop": 2766,
      "editing": 2767,
      "plant": 2768,
      "heart": 2769,
      "ulations": 2770,
      "opin": 2771,
      "options": 2772,
      "chl": 2773,
      "sug": 2774,
      "imaging": 2775,
      "spells": 2776,
      "ocr": 2777,
      "odoro": 2778,
      "clarity": 2779,
      "indu": 2780,
      "commit": 2781,
      "compan": 2782,
      "moving": 2783,
      "sea": 2784,
      "precis": 2785,
      "goti": 2786,
      "fication": 2787,
      "ounds": 2788,
      "series": 2789,
      "web": 2790,
      "teamwork": 2791,
      "underlying": 2792,
      "setbac": 2793,
      "improved": 2794,
      "regulating": 2795,
      "digestion": 2796,
      "cars": 2797,
      "calcul": 2798,
      "intelligent": 2799,
      "encing": 2800,
      "solute": 2801,
      "differenti": 2802,
      "Thenkan": 2803,
      "greater": 2804,
      "surve": 2805,
      "predictions": 2806,
      "investing": 2807,
      "collec": 2808,
      "molecular": 2809,
      "muscle": 2810,
      "pairs": 2811,
      "superher": 2812,
      "neuron": 2813,
      "cosm": 2814,
      "rapidly": 2815,
      "dependence": 2816,
      "visualize": 2817,
      "views": 2818,
      "conducting": 2819,
      "scale": 2820,
      "establishing": 2821,
      "idiyoor": 2822,
      "intuition": 2823,
      "Unlike": 2824,
      "postsynaptic": 2825,
      "distribution": 2826,
      "delegating": 2827,
      "following": 2828,
      "channels": 2829,
      "chatbots": 2830,
      "cycling": 2831,
      "fundamental": 2832,
      "rotransmitters": 2833,
      "Creating": 2834,
      "Pomodoro": 2835,
      "loved": 2836,
      "setbacks": 2837,
      "Thenkanidiyoor": 2838,
      "superhero": 2839,
      "Neu": 2840,
      "Re": 2841,
      "Soc": 2842,
      "Yes": 2843,
      "ade": 2844,
      "astr": 2845,
      "ber": 2846,
      "chem": 2847,
      "equal": 2848,
      "fit": 2849,
      "fant": 2850,
      "ique": 2851,
      "kind": 2852,
      "men": 2853,
      "mach": 2854,
      "nit": 2855,
      "sem": 2856,
      "win": 2857,
      "would": 2858,
      "orbit": 2859,
      "ali": 2860,
      "alies": 2861,
      "reci": 2862,
      "icating": 2863,
      "acting": 2864,
      "proto": 2865,
      "extr": 2866,
      "aden": 2867,
      "elles": 2868,
      "ides": 2869,
      "helping": 2870,
      "cred": 2871,
      "creatures": 2872,
      "allic": 2873,
      "includes": 2874,
      "prepar": 2875,
      "mathema": 2876,
      "peti": 2877,
      "transformation": 2878,
      "organelles": 2879,
      "structures": 2880,
      "othermal": 2881,
      "orylation": 2882,
      "prompt": 2883,
      "aster": 2884,
      "idea": 2885,
      "primary": 2886,
      "immut": 2887,
      "diffic": 2888,
      "presence": 2889,
      "satis": 2890,
      "these": 2891,
      "advanced": 2892,
      "modern": 2893,
      "oritizing": 2894,
      "umes": 2895,
      "purch": 2896,
      "automate": 2897,
      "spirit": 2898,
      "journ": 2899,
      "substance": 2900,
      "sequences": 2901,
      "programming": 2902,
      "controlling": 2903,
      "layers": 2904,
      "mutations": 2905,
      "supporting": 2906,
      "operations": 2907,
      "determines": 2908,
      "strength": 2909,
      "connections": 2910,
      "urban": 2911,
      "burn": 2912,
      "phosphate": 2913,
      "phosphorylation": 2914,
      "gmented": 2915,
      "therapy": 2916,
      "specialized": 2917,
      "instructions": 2918,
      "failures": 2919,
      "equipment": 2920,
      "Commun": 2921,
      "started": 2922,
      "interventions": 2923,
      "landscap": 2924,
      "anomalies": 2925,
      "objectives": 2926,
      "accessible": 2927,
      "loss": 2928,
      "yield": 2929,
      "aspects": 2930,
      "answering": 2931,
      "Becoming": 2932,
      "Prioritizing": 2933,
      "Technique": 2934,
      "receptors": 2935,
      "industry": 2936,
      "precise": 2937,
      "fantas": 2938,
      "Communicating": 2939,
      "Data": 2940,
      "Whether": 2941,
      "city": 2942,
      "cir": 2943,
      "dom": 2944,
      "dance": 2945,
      "dget": 2946,
      "ees": 2947,
      "faction": 2948,
      "govern": 2949,
      "hom": 2950,
      "hormones": 2951,
      "jo": 2952,
      "ju": 2953,
      "kary": 2954,
      "land": 2955,
      "mation": 2956,
      "pan": 2957,
      "scen": 2958,
      "table": 2959,
      "vast": 2960,
      "inc": 2961,
      "tism": 2962,
      "ont": 2963,
      "repl": 2964,
      "step": 2965,
      "asc": 2966,
      "arding": 2967,
      "itch": 2968,
      "sified": 2969,
      "plu": 2970,
      "urgency": 2971,
      "exec": 2972,
      "exist": 2973,
      "cho": 2974,
      "image": 2975,
      "sperm": 2976,
      "succes": 2977,
      "hif": 2978,
      "oci": 2979,
      "teloph": 2980,
      "strand": 2981,
      "complement": 2982,
      "compounds": 2983,
      "prec": 2984,
      "made": 2985,
      "cyto": 2986,
      "internet": 2987,
      "ountain": 2988,
      "serve": 2989,
      "weight": 2990,
      "colon": 2991,
      "associ": 2992,
      "audi": 2993,
      "butions": 2994,
      "budget": 2995,
      "point": 2996,
      "news": 2997,
      "hum": 2998,
      "drift": 2999,
      "fig": 3000,
      "potentially": 3001,
      "identities": 3002,
      "enses": 3003,
      "collaborate": 3004,
      "nets": 3005,
      "institu": 3006,
      "survi": 3007,
      "advice": 3008,
      "predicting": 3009,
      "treas": 3010,
      "contributions": 3011,
      "automating": 3012,
      "increased": 3013,
      "unethical": 3014,
      "results": 3015,
      "adaptation": 3016,
      "adaptable": 3017,
      "behavioral": 3018,
      "soil": 3019,
      "tailor": 3020,
      "threats": 3021,
      "combine": 3022,
      "speed": 3023,
      "speaking": 3024,
      "agnetism": 3025,
      "diseases": 3026,
      "avo": 3027,
      "foreign": 3028,
      "determined": 3029,
      "bringing": 3030,
      "appli": 3031,
      "population": 3032,
      "populations": 3033,
      "schedul": 3034,
      "authentication": 3035,
      "offers": 3036,
      "attending": 3037,
      "secrets": 3038,
      "consider": 3039,
      "direct": 3040,
      "cryptographic": 3041,
      "cryptography": 3042,
      "half": 3043,
      "influencing": 3044,
      "instrumental": 3045,
      "overwhelmed": 3046,
      "allows": 3047,
      "reshap": 3048,
      "rays": 3049,
      "attacks": 3050,
      "Acids": 3051,
      "sleep": 3052,
      "difficult": 3053,
      "satisfaction": 3054,
      "karyotic": 3055,
      "telophase": 3056,
      "complementary": 3057,
      "18": 3058,
      "Ne": 3059,
      "Pr": 3060,
      "See": 3061,
      "Tran": 3062,
      "Who": 3063,
      "cli": 3064,
      "dau": 3065,
      "eas": 3066,
      "fo": 3067,
      "gation": 3068,
      "government": 3069,
      "hops": 3070,
      "itical": 3071,
      "ired": 3072,
      "ky": 3073,
      "rich": 3074,
      "turing": 3075,
      "tural": 3076,
      "ume": 3077,
      "aning": 3078,
      "tice": 3079,
      "eries": 3080,
      "ense": 3081,
      "orities": 3082,
      "orophy": 3083,
      "repeti": 3084,
      "roy": 3085,
      "rogen": 3086,
      "elim": 3087,
      "tox": 3088,
      "aced": 3089,
      "accom": 3090,
      "acter": 3091,
      "sitive": 3092,
      "depl": 3093,
      "tries": 3094,
      "trial": 3095,
      "trics": 3096,
      "unwind": 3097,
      "plish": 3098,
      "config": 3099,
      "diet": 3100,
      "meet": 3101,
      "verify": 3102,
      "ghter": 3103,
      "provides": 3104,
      "creates": 3105,
      "manner": 3106,
      "manip": 3107,
      "photosynthesis": 3108,
      "mobility": 3109,
      "allocation": 3110,
      "overview": 3111,
      "overcome": 3112,
      "produced": 3113,
      "therm": 3114,
      "solid": 3115,
      "portation": 3116,
      "aching": 3117,
      "goal": 3118,
      "transaction": 3119,
      "week": 3120,
      "parties": 3121,
      "show": 3122,
      "short": 3123,
      "desired": 3124,
      "bodies": 3125,
      "finance": 3126,
      "bases": 3127,
      "physics": 3128,
      "asts": 3129,
      "priorities": 3130,
      "preser": 3131,
      "presents": 3132,
      "saving": 3133,
      "capable": 3134,
      "political": 3135,
      "onomers": 3136,
      "efficient": 3137,
      "languages": 3138,
      "advent": 3139,
      "releasing": 3140,
      "laid": 3141,
      "merase": 3142,
      "pursu": 3143,
      "bustion": 3144,
      "designs": 3145,
      "workshops": 3146,
      "hold": 3147,
      "doing": 3148,
      "nutrient": 3149,
      "constructively": 3150,
      "cope": 3151,
      "enhanced": 3152,
      "threat": 3153,
      "consumed": 3154,
      "patients": 3155,
      "lowering": 3156,
      "caused": 3157,
      "alternatives": 3158,
      "Develop": 3159,
      "handle": 3160,
      "visualization": 3161,
      "assessment": 3162,
      "approaches": 3163,
      "character": 3164,
      "relief": 3165,
      "attention": 3166,
      "catalysts": 3167,
      "broken": 3168,
      "dynamics": 3169,
      "resistance": 3170,
      "Augmented": 3171,
      "animals": 3172,
      "modifications": 3173,
      "gradual": 3174,
      "leverage": 3175,
      "injury": 3176,
      "observations": 3177,
      "oxidative": 3178,
      "authorized": 3179,
      "periodic": 3180,
      "quakes": 3181,
      "polymerase": 3182,
      "disturbances": 3183,
      "mysteries": 3184,
      "decomposition": 3185,
      "supervisors": 3186,
      "Social": 3187,
      "promptly": 3188,
      "immutable": 3189,
      "purchase": 3190,
      "burnout": 3191,
      "scenari": 3192,
      "institutions": 3193,
      "Seeking": 3194,
      "Whoa": 3195,
      "daughter": 3196,
      "orophyll": 3197,
      "accomplish": 3198,
      "deploy": 3199,
      "configur": 3200,
      "All": 3201,
      "Chemical": 3202,
      "Emb": 3203,
      "Ens": 3204,
      "Io": 3205,
      "Mat": 3206,
      "Res": 3207,
      "Sh": 3208,
      "Spec": 3209,
      "Te": 3210,
      "bs": 3211,
      "covalent": 3212,
      "der": 3213,
      "draw": 3214,
      "house": 3215,
      "iding": 3216,
      "ionic": 3217,
      "killing": 3218,
      "mone": 3219,
      "ok": 3220,
      "pap": 3221,
      "pyruvate": 3222,
      "ren": 3223,
      "sect": 3224,
      "source": 3225,
      "ton": 3226,
      "tech": 3227,
      "vital": 3228,
      "ware": 3229,
      "winding": 3230,
      "watch": 3231,
      "inv": 3232,
      "inten": 3233,
      "incor": 3234,
      "ality": 3235,
      "rely": 3236,
      "rob": 3237,
      "atus": 3238,
      "star": 3239,
      "eles": 3240,
      "eling": 3241,
      "theore": 3242,
      "lete": 3243,
      "ark": 3244,
      "arad": 3245,
      "edures": 3246,
      "dee": 3247,
      "vide": 3248,
      "restrial": 3249,
      "plate": 3250,
      "urance": 3251,
      "abund": 3252,
      "rix": 3253,
      "agents": 3254,
      "agree": 3255,
      "diver": 3256,
      "extre": 3257,
      "meaning": 3258,
      "ading": 3259,
      "osis": 3260,
      "provided": 3261,
      "helps": 3262,
      "indic": 3263,
      "ours": 3264,
      "solve": 3265,
      "maj": 3266,
      "master": 3267,
      "makers": 3268,
      "bles": 3269,
      "outside": 3270,
      "geothermal": 3271,
      "transl": 3272,
      "organize": 3273,
      "fully": 3274,
      "throughout": 3275,
      "variation": 3276,
      "fying": 3277,
      "warming": 3278,
      "genes": 3279,
      "calm": 3280,
      "genetics": 3281,
      "encoded": 3282,
      "odynamics": 3283,
      "expand": 3284,
      "ished": 3285,
      "generation": 3286,
      "resilient": 3287,
      "balanced": 3288,
      "protect": 3289,
      "resulted": 3290,
      "jobs": 3291,
      "trusted": 3292,
      "beneficial": 3293,
      "employment": 3294,
      "resolve": 3295,
      "regularly": 3296,
      "facilitate": 3297,
      "Definitely": 3298,
      "gamet": 3299,
      "contains": 3300,
      "accurate": 3301,
      "absorbed": 3302,
      "procedures": 3303,
      "measures": 3304,
      "failure": 3305,
      "equipped": 3306,
      "inspire": 3307,
      "reflection": 3308,
      "damage": 3309,
      "coordin": 3310,
      "reactants": 3311,
      "implementing": 3312,
      "teleportation": 3313,
      "stimulate": 3314,
      "lifes": 3315,
      "habitat": 3316,
      "Alber": 3317,
      "game": 3318,
      "happiness": 3319,
      "embrace": 3320,
      "fulfilling": 3321,
      "shopping": 3322,
      "architects": 3323,
      "biomass": 3324,
      "myself": 3325,
      "maximize": 3326,
      "policymakers": 3327,
      "propel": 3328,
      "opinions": 3329,
      "fitness": 3330,
      "credited": 3331,
      "thermodynamics": 3332,
      "Developing": 3333,
      "characteristics": 3334,
      "Ensuring": 3335,
      "IoT": 3336,
      "Matrix": 3337,
      "Team": 3338,
      "incorpor": 3339,
      "theoretical": 3340,
      "Albert": 3341,
      "Ch": 3342,
      "DP": 3343,
      "Eis": 3344,
      "Ke": 3345,
      "LP": 3346,
      "Li": 3347,
      "Me": 3348,
      "Mi": 3349,
      "MRI": 3350,
      "NLP": 3351,
      "Over": 3352,
      "To": 3353,
      "ail": 3354,
      "away": 3355,
      "bits": 3356,
      "bines": 3357,
      "core": 3358,
      "dressing": 3359,
      "evid": 3360,
      "fun": 3361,
      "free": 3362,
      "gap": 3363,
      "gather": 3364,
      "hours": 3365,
      "lun": 3366,
      "lds": 3367,
      "magnetic": 3368,
      "snow": 3369,
      "templ": 3370,
      "vin": 3371,
      "vul": 3372,
      "vot": 3373,
      "ining": 3374,
      "tides": 3375,
      "onics": 3376,
      "ery": 3377,
      "eras": 3378,
      "ered": 3379,
      "envelop": 3380,
      "enzymes": 3381,
      "thy": 3382,
      "oral": 3383,
      "attitude": 3384,
      "stable": 3385,
      "topic": 3386,
      "ick": 3387,
      "accept": 3388,
      "proof": 3389,
      "edge": 3390,
      "old": 3391,
      "unauthorized": 3392,
      "places": 3393,
      "rig": 3394,
      "ush": 3395,
      "ulating": 3396,
      "iles": 3397,
      "ower": 3398,
      "metrics": 3399,
      "chec": 3400,
      "queries": 3401,
      "sum": 3402,
      "izes": 3403,
      "spati": 3404,
      "tering": 3405,
      "ghting": 3406,
      "strong": 3407,
      "clas": 3408,
      "clos": 3409,
      "worlds": 3410,
      "endocr": 3411,
      "inetic": 3412,
      "volumes": 3413,
      "seism": 3414,
      "tein": 3415,
      "rather": 3416,
      "worklo": 3417,
      "sors": 3418,
      "quiet": 3419,
      "color": 3420,
      "respecting": 3421,
      "person": 3422,
      "Maybe": 3423,
      "regener": 3424,
      "basic": 3425,
      "career": 3426,
      "marine": 3427,
      "enhower": 3428,
      "profound": 3429,
      "profiles": 3430,
      "actionable": 3431,
      "crimin": 3432,
      "regulates": 3433,
      "acticing": 3434,
      "possi": 3435,
      "cooking": 3436,
      "metallic": 3437,
      "customers": 3438,
      "professionalism": 3439,
      "whole": 3440,
      "ancing": 3441,
      "optimization": 3442,
      "blocks": 3443,
      "discovering": 3444,
      "qualities": 3445,
      "donate": 3446,
      "bloodstream": 3447,
      "Addressing": 3448,
      "turbines": 3449,
      "employees": 3450,
      "pione": 3451,
      "navigating": 3452,
      "cause": 3453,
      "causes": 3454,
      "electoral": 3455,
      "operation": 3456,
      "emotion": 3457,
      "emotions": 3458,
      "examples": 3459,
      "society": 3460,
      "synapses": 3461,
      "consult": 3462,
      "investment": 3463,
      "investments": 3464,
      "catalyzing": 3465,
      "preventing": 3466,
      "accuracy": 3467,
      "Protein": 3468,
      "delivery": 3469,
      "measure": 3470,
      "diagnostic": 3471,
      "counter": 3472,
      "formula": 3473,
      "surroundings": 3474,
      "wonder": 3475,
      "recei": 3476,
      "accelerate": 3477,
      "further": 3478,
      "visible": 3479,
      "continental": 3480,
      "hormone": 3481,
      "robotics": 3482,
      "traceability": 3483,
      "fertilization": 3484,
      "cutting": 3485,
      "tectonics": 3486,
      "websit": 3487,
      "kindness": 3488,
      "recipes": 3489,
      "landscape": 3490,
      "associated": 3491,
      "treasures": 3492,
      "Practicing": 3493,
      "repetition": 3494,
      "scenarios": 3495,
      "configuration": 3496,
      "deeper": 3497,
      "major": 3498,
      "Eisenhower": 3499,
      "evidence": 3500,
      "vulner": 3501,
      "spatial": 3502,
      "endocrine": 3503,
      "seismic": 3504,
      "workload": 3505,
      ",'": 3506,
      "ADH": 3507,
      "FADH": 3508,
      "Jam": 3509,
      "Lord": 3510,
      "Nat": 3511,
      "New": 3512,
      "Technology": 3513,
      "With": 3514,
      "ak": 3515,
      "bilities": 3516,
      "cand": 3517,
      "cra": 3518,
      "dog": 3519,
      "eties": 3520,
      "hon": 3521,
      "igh": 3522,
      "iety": 3523,
      "kinetic": 3524,
      "lut": 3525,
      "mountain": 3526,
      "nan": 3527,
      "nal": 3528,
      "nour": 3529,
      "normal": 3530,
      "pli": 3531,
      "sal": 3532,
      "tle": 3533,
      "tors": 3534,
      "text": 3535,
      "testing": 3536,
      "utiliz": 3537,
      "vor": 3538,
      "voting": 3539,
      "xiety": 3540,
      "infr": 3541,
      "independent": 3542,
      "instant": 3543,
      "anxiety": 3544,
      "tiz": 3545,
      "tious": 3546,
      "thquakes": 3547,
      "rehab": 3548,
      "root": 3549,
      "sty": 3550,
      "stination": 3551,
      "towards": 3552,
      "tomation": 3553,
      "asis": 3554,
      "outer": 3555,
      "acking": 3556,
      "ecological": 3557,
      "ising": 3558,
      "pros": 3559,
      "eding": 3560,
      "liqu": 3561,
      "liance": 3562,
      "degrad": 3563,
      "ford": 3564,
      "forest": 3565,
      "trum": 3566,
      "reskilling": 3567,
      "riers": 3568,
      "compromise": 3569,
      "combustion": 3570,
      "exchange": 3571,
      "ilitation": 3572,
      "meal": 3573,
      "ches": 3574,
      "osine": 3575,
      "images": 3576,
      "ogr": 3577,
      "ogen": 3578,
      "ambi": 3579,
      "hibit": 3580,
      "volume": 3581,
      "compassion": 3582,
      "obo": 3583,
      "obso": 3584,
      "civi": 3585,
      "cienti": 3586,
      "citiz": 3587,
      "ostasis": 3588,
      "ryption": 3589,
      "rought": 3590,
      "party": 3591,
      "datas": 3592,
      "contact": 3593,
      "throughs": 3594,
      "showing": 3595,
      "persever": 3596,
      "trigg": 3597,
      "variety": 3598,
      "minded": 3599,
      "big": 3600,
      "biometric": 3601,
      "pois": 3602,
      "curios": 3603,
      "earthquakes": 3604,
      "encryption": 3605,
      "substr": 3606,
      "insurance": 3607,
      "metal": 3608,
      "played": 3609,
      "surround": 3610,
      "osystems": 3611,
      "ception": 3612,
      "object": 3613,
      "behaviors": 3614,
      "successful": 3615,
      "numbers": 3616,
      "particular": 3617,
      "efs": 3618,
      "openness": 3619,
      "adaptability": 3620,
      "tissue": 3621,
      "detecting": 3622,
      "construction": 3623,
      "minimize": 3624,
      "converts": 3625,
      "conversion": 3626,
      "highly": 3627,
      "revolutionizing": 3628,
      "concept": 3629,
      "radio": 3630,
      "hydroelectric": 3631,
      "clarification": 3632,
      "cyber": 3633,
      "talent": 3634,
      "fossils": 3635,
      "dense": 3636,
      "plastic": 3637,
      "begin": 3638,
      "mitigating": 3639,
      "valued": 3640,
      "treatments": 3641,
      "simpler": 3642,
      "secretion": 3643,
      "emerging": 3644,
      "describe": 3645,
      "describes": 3646,
      "scientific": 3647,
      "harnessing": 3648,
      "absorbs": 3649,
      "mentorship": 3650,
      "Prot": 3651,
      "disrupt": 3652,
      "cognition": 3653,
      "mix": 3654,
      "mito": 3655,
      "intuitive": 3656,
      "resistant": 3657,
      "Automation": 3658,
      "competitive": 3659,
      "competitiveness": 3660,
      "beli": 3661,
      "Photosynthesis": 3662,
      "lining": 3663,
      "liter": 3664,
      "adjusting": 3665,
      "subjects": 3666,
      "polarization": 3667,
      "Ecosystems": 3668,
      "requiring": 3669,
      "aneous": 3670,
      "introducing": 3671,
      "milest": 3672,
      "referring": 3673,
      "sugars": 3674,
      "companies": 3675,
      "cosmos": 3676,
      "adenosine": 3677,
      "replen": 3678,
      "precision": 3679,
      "humility": 3680,
      "directly": 3681,
      "manipulating": 3682,
      "agreements": 3683,
      "lifesty": 3684,
      "Meiosis": 3685,
      "envelope": 3686,
      "check": 3687,
      "criminal": 3688,
      "FADH2": 3689,
      "James": 3690,
      "Natural": 3691,
      "Newton": 3692,
      "nourish": 3693,
      "rehabilitation": 3694,
      "obsolete": 3695,
      "curiosity": 3696,
      "surrounded": 3697,
      "Could": 3698,
      "Gol": 3699,
      "His": 3700,
      "MAR": 3701,
      "Nan": 3702,
      "Nuc": 3703,
      "Prom": 3704,
      "Self": 3705,
      "SMAR": 3706,
      "aim": 3707,
      "bed": 3708,
      "bly": 3709,
      "brought": 3710,
      "che": 3711,
      "certain": 3712,
      "dream": 3713,
      "first": 3714,
      "gard": 3715,
      "gestion": 3716,
      "hands": 3717,
      "mas": 3718,
      "missions": 3719,
      "match": 3720,
      "night": 3721,
      "oplas": 3722,
      "oeconomic": 3723,
      "ptive": 3724,
      "rain": 3725,
      "sens": 3726,
      "shif": 3727,
      "trou": 3728,
      "ups": 3729,
      "vap": 3730,
      "wel": 3731,
      "iny": 3732,
      "induc": 3733,
      "input": 3734,
      "ancy": 3735,
      "tide": 3736,
      "ondri": 3737,
      "thosphere": 3738,
      "alind": 3739,
      "stres": 3740,
      "stri": 3741,
      "theories": 3742,
      "leg": 3743,
      "acqui": 3744,
      "iter": 3745,
      "lithosphere": 3746,
      "vious": 3747,
      "ceed": 3748,
      "plasts": 3749,
      "uries": 3750,
      "constant": 3751,
      "congestion": 3752,
      "rial": 3753,
      "ither": 3754,
      "appro": 3755,
      "apping": 3756,
      "coming": 3757,
      "divi": 3758,
      "ditive": 3759,
      "dimen": 3760,
      "oppos": 3761,
      "ilar": 3762,
      "chondri": 3763,
      "adop": 3764,
      "additive": 3765,
      "atebo": 3766,
      "irm": 3767,
      "amoun": 3768,
      "hiking": 3769,
      "sister": 3770,
      "perception": 3771,
      "teles": 3772,
      "providers": 3773,
      "tivating": 3774,
      "strands": 3775,
      "negoti": 3776,
      "ortality": 3777,
      "disord": 3778,
      "movi": 3779,
      "teach": 3780,
      "previous": 3781,
      "viral": 3782,
      "aches": 3783,
      "expert": 3784,
      "experts": 3785,
      "itself": 3786,
      "entiality": 3787,
      "explo": 3788,
      "serving": 3789,
      "organizing": 3790,
      "community": 3791,
      "spectrum": 3792,
      "NADP": 3793,
      "aterrestrial": 3794,
      "sky": 3795,
      "augment": 3796,
      "technological": 3797,
      "wellness": 3798,
      "typing": 3799,
      "bias": 3800,
      "member": 3801,
      "beings": 3802,
      "immortality": 3803,
      "innovations": 3804,
      "ification": 3805,
      "prescri": 3806,
      "capture": 3807,
      "tension": 3808,
      "hydr": 3809,
      "stored": 3810,
      "glands": 3811,
      "customized": 3812,
      "synthesizing": 3813,
      "distance": 3814,
      "trees": 3815,
      "valence": 3816,
      "increases": 3817,
      "nucleo": 3818,
      "sensitive": 3819,
      "continents": 3820,
      "morale": 3821,
      "openly": 3822,
      "fair": 3823,
      "favor": 3824,
      "property": 3825,
      "copes": 3826,
      "neuro": 3827,
      "chromati": 3828,
      "encourages": 3829,
      "Adv": 3830,
      "forcement": 3831,
      "breakthroughs": 3832,
      "concentrations": 3833,
      "speech": 3834,
      "deadly": 3835,
      "confident": 3836,
      "effort": 3837,
      "messages": 3838,
      "socioeconomic": 3839,
      "clarifying": 3840,
      "connecting": 3841,
      "cleaning": 3842,
      "cameras": 3843,
      "unlock": 3844,
      "eukaryotic": 3845,
      "drugs": 3846,
      "securely": 3847,
      "ophical": 3848,
      "homeostasis": 3849,
      "streamline": 3850,
      "pathogen": 3851,
      "connected": 3852,
      "Cloud": 3853,
      "lipids": 3854,
      "electromagnetism": 3855,
      "tampering": 3856,
      "oroplasts": 3857,
      "participating": 3858,
      "stimulating": 3859,
      "leveraging": 3860,
      "keeping": 3861,
      "organizational": 3862,
      "Plate": 3863,
      "smoothly": 3864,
      "litmus": 3865,
      "embracing": 3866,
      "contracts": 3867,
      "groups": 3868,
      "assertiveness": 3869,
      "subject": 3870,
      "assemble": 3871,
      "error": 3872,
      "conventional": 3873,
      "philosophical": 3874,
      "grid": 3875,
      "outdoors": 3876,
      "latest": 3877,
      "scans": 3878,
      "chlorophyll": 3879,
      "Neurotransmitters": 3880,
      "extraterrestrial": 3881,
      "preparation": 3882,
      "succession": 3883,
      "budgeting": 3884,
      "considerations": 3885,
      "deployment": 3886,
      "paper": 3887,
      "meaningful": 3888,
      "gametes": 3889,
      "propelled": 3890,
      "Mitosis": 3891,
      "candid": 3892,
      "degradation": 3893,
      "civiliz": 3894,
      "cientists": 3895,
      "datasets": 3896,
      "perseverance": 3897,
      "substrates": 3898,
      "milestones": 3899,
      "lifestyle": 3900,
      "Golgi": 3901,
      "Nuclear": 3902,
      "Promoting": 3903,
      "SMART": 3904,
      "vapor": 3905,
      "stressors": 3906,
      "acquire": 3907,
      "opposite": 3908,
      "amounts": 3909,
      "NADPH": 3910,
      "chromatids": 3911,
      "Astr": 3912,
      "BC": 3913,
      "Bo": 3914,
      "CO": 3915,
      "Con": 3916,
      "For": 3917,
      "Farad": 3918,
      "Isa": 3919,
      "Max": 3920,
      "Nothing": 3921,
      "Ox": 3922,
      "Psych": 3923,
      "Smart": 3924,
      "Taking": 3925,
      "bath": 3926,
      "case": 3927,
      "dens": 3928,
      "fall": 3929,
      "frequ": 3930,
      "fasc": 3931,
      "hot": 3932,
      "hous": 3933,
      "istry": 3934,
      "jus": 3935,
      "pul": 3936,
      "pace": 3937,
      "pose": 3938,
      "pitation": 3939,
      "rent": 3940,
      "ram": 3941,
      "renew": 3942,
      "uti": 3943,
      "vic": 3944,
      "vable": 3945,
      "visions": 3946,
      "zes": 3947,
      "zed": 3948,
      "zone": 3949,
      "ined": 3950,
      "ints": 3951,
      "inforcement": 3952,
      "anormal": 3953,
      "tial": 3954,
      "ero": 3955,
      "enzy": 3956,
      "retic": 3957,
      "reten": 3958,
      "reviews": 3959,
      "row": 3960,
      "roots": 3961,
      "atin": 3962,
      "ellip": 3963,
      "lea": 3964,
      "promo": 3965,
      "proactively": 3966,
      "omacy": 3967,
      "entang": 3968,
      "deb": 3969,
      "canic": 3970,
      "unra": 3971,
      "plomacy": 3972,
      "heavi": 3973,
      "rimin": 3974,
      "appar": 3975,
      "agers": 3976,
      "ulin": 3977,
      "ulum": 3978,
      "divisions": 3979,
      "diplomacy": 3980,
      "exchanges": 3981,
      "iling": 3982,
      "illi": 3983,
      "meetings": 3984,
      "amb": 3985,
      "ampli": 3986,
      "spaced": 3987,
      "ock": 3988,
      "ocate": 3989,
      "ochemical": 3990,
      "emp": 3991,
      "idents": 3992,
      "clin": 3993,
      "forming": 3994,
      "endoplas": 3995,
      "managers": 3996,
      "volcanic": 3997,
      "phr": 3998,
      "produces": 3999,
      "rastination": 4000,
      "workplace": 4001,
      "veling": 4002,
      "pregn": 4003,
      "matic": 4004,
      "blue": 4005,
      "oble": 4006,
      "interdiscipl": 4007,
      "paign": 4008,
      "weigh": 4009,
      "paranormal": 4010,
      "discrimin": 4011,
      "teams": 4012,
      "ownership": 4013,
      "full": 4014,
      "recommendation": 4015,
      "cultural": 4016,
      "relative": 4017,
      "boards": 4018,
      "asses": 4019,
      "acknow": 4020,
      "skatebo": 4021,
      "communicator": 4022,
      "trips": 4023,
      "triphosphate": 4024,
      "final": 4025,
      "recover": 4026,
      "recru": 4027,
      "regions": 4028,
      "bike": 4029,
      "biochemical": 4030,
      "takes": 4031,
      "updat": 4032,
      "points": 4033,
      "flowing": 4034,
      "growing": 4035,
      "oxidi": 4036,
      "regulation": 4037,
      "achievable": 4038,
      "strategic": 4039,
      "possible": 4040,
      "guided": 4041,
      "carries": 4042,
      "onging": 4043,
      "maintains": 4044,
      "ists": 4045,
      "coaching": 4046,
      "customization": 4047,
      "signs": 4048,
      "roscop": 4049,
      "ggling": 4050,
      "released": 4051,
      "imagination": 4052,
      "listen": 4053,
      "print": 4054,
      "protecting": 4055,
      "contributing": 4056,
      "Stem": 4057,
      "micro": 4058,
      "nutritious": 4059,
      "central": 4060,
      "superhuman": 4061,
      "supernatural": 4062,
      "boundary": 4063,
      "minimal": 4064,
      "fuel": 4065,
      "shapes": 4066,
      "simulate": 4067,
      "Adap": 4068,
      "turning": 4069,
      "employable": 4070,
      "suggesting": 4071,
      "resolving": 4072,
      "Collabor": 4073,
      "revolutionized": 4074,
      "industrial": 4075,
      "supports": 4076,
      "repairs": 4077,
      "electro": 4078,
      "electronic": 4079,
      "confidentiality": 4080,
      "habits": 4081,
      "190": 4082,
      "determination": 4083,
      "published": 4084,
      "folding": 4085,
      "progres": 4086,
      "precipitation": 4087,
      "neutral": 4088,
      "gaming": 4089,
      "rewards": 4090,
      "conduct": 4091,
      "consent": 4092,
      "ultural": 4093,
      "monitor": 4094,
      "campaign": 4095,
      "scalability": 4096,
      "reliability": 4097,
      "similar": 4098,
      "metabolic": 4099,
      "presentation": 4100,
      "mutually": 4101,
      "affirm": 4102,
      "disruptive": 4103,
      "Biodiversity": 4104,
      "Biometric": 4105,
      "front": 4106,
      "procrastination": 4107,
      "influence": 4108,
      "damaged": 4109,
      "agricultural": 4110,
      "mediate": 4111,
      "coordination": 4112,
      "increasingly": 4113,
      "reactant": 4114,
      "evenness": 4115,
      "hooting": 4116,
      "misinformation": 4117,
      "intervention": 4118,
      "destroy": 4119,
      "Plants": 4120,
      "belonging": 4121,
      "fulfill": 4122,
      "oxidation": 4123,
      "contraction": 4124,
      "group": 4125,
      "magic": 4126,
      "psychic": 4127,
      "psychologist": 4128,
      "wonders": 4129,
      "receive": 4130,
      "Space": 4131,
      "eggs": 4132,
      "errors": 4133,
      "helix": 4134,
      "helium": 4135,
      "currency": 4136,
      "accordingly": 4137,
      "infec": 4138,
      "calculated": 4139,
      "chemistry": 4140,
      "machines": 4141,
      "semi": 4142,
      "circul": 4143,
      "plumb": 4144,
      "execut": 4145,
      "choices": 4146,
      "applied": 4147,
      "reshaping": 4148,
      "richness": 4149,
      "toxins": 4150,
      "adventure": 4151,
      "accomplishments": 4152,
      "Species": 4153,
      "videos": 4154,
      "bleshooting": 4155,
      "template": 4156,
      "classified": 4157,
      "possibilities": 4158,
      "counterfe": 4159,
      "wonderful": 4160,
      "infrared": 4161,
      "ambigu": 4162,
      "citizens": 4163,
      "mitochondri": 4164,
      "shifts": 4165,
      "troubleshooting": 4166,
      "welcome": 4167,
      "Astronomers": 4168,
      "CO2": 4169,
      "Faraday": 4170,
      "Isaac": 4171,
      "Psychologists": 4172,
      "justice": 4173,
      "utili": 4174,
      "reticulum": 4175,
      "retention": 4176,
      "elliptical": 4177,
      "promotions": 4178,
      "entanglement": 4179,
      "unraveling": 4180,
      "heavier": 4181,
      "apparatus": 4182,
      "amplify": 4183,
      "endoplasmic": 4184,
      "pregnancy": 4185,
      "interdisciplinary": 4186,
      "recruit": 4187,
      "campaigns": 4188,
      "affirmations": 4189,
      "..": 4190,
      "Aut": 4191,
      "Co": 4192,
      "Cul": 4193,
      "Covalent": 4194,
      "Dar": 4195,
      "ER": 4196,
      "Ethical": 4197,
      "II": 4198,
      "Kre": 4199,
      "NS": 4200,
      "Pot": 4201,
      "Robo": 4202,
      "Tot": 4203,
      "Wh": 4204,
      "cations": 4205,
      "celes": 4206,
      "eating": 4207,
      "fru": 4208,
      "ged": 4209,
      "got": 4210,
      "gical": 4211,
      "gold": 4212,
      "kines": 4213,
      "lack": 4214,
      "mn": 4215,
      "mel": 4216,
      "mend": 4217,
      "ners": 4218,
      "noble": 4219,
      "ole": 4220,
      "pen": 4221,
      "pay": 4222,
      "pale": 4223,
      "racing": 4224,
      "saying": 4225,
      "tend": 4226,
      "tack": 4227,
      "trop": 4228,
      "telling": 4229,
      "uli": 4230,
      "ums": 4231,
      "usion": 4232,
      "vation": 4233,
      "vam": 4234,
      "wsing": 4235,
      "xes": 4236,
      "inhibit": 4237,
      "tifications": 4238,
      "ongoing": 4239,
      "estive": 4240,
      "estions": 4241,
      "escap": 4242,
      "enforce": 4243,
      "ret": 4244,
      "remind": 4245,
      "reproduce": 4246,
      "represents": 4247,
      "stage": 4248,
      "store": 4249,
      "elle": 4250,
      "too": 4251,
      "icies": 4252,
      "iciting": 4253,
      "lem": 4254,
      "leis": 4255,
      "asive": 4256,
      "acqu": 4257,
      "acety": 4258,
      "acade": 4259,
      "ective": 4260,
      "isper": 4261,
      "proli": 4262,
      "proceed": 4263,
      "edity": 4264,
      "olf": 4265,
      "sional": 4266,
      "sides": 4267,
      "liability": 4268,
      "depart": 4269,
      "fort": 4270,
      "tration": 4271,
      "via": 4272,
      "plates": 4273,
      "consequences": 4274,
      "agine": 4275,
      "agility": 4276,
      "ultim": 4277,
      "ticides": 4278,
      "implants": 4279,
      "amless": 4280,
      "spring": 4281,
      "terms": 4282,
      "emonic": 4283,
      "cles": 4284,
      "closed": 4285,
      "whisper": 4286,
      "helped": 4287,
      "indices": 4288,
      "endary": 4289,
      "creas": 4290,
      "ourse": 4291,
      "inequalities": 4292,
      "compliance": 4293,
      "seamless": 4294,
      "allocate": 4295,
      "overlay": 4296,
      "soliciting": 4297,
      "engines": 4298,
      "bla": 4299,
      "feration": 4300,
      "geome": 4301,
      "geological": 4302,
      "serves": 4303,
      "organelle": 4304,
      "paras": 4305,
      "discourse": 4306,
      "contex": 4307,
      "experimental": 4308,
      "boxes": 4309,
      "brand": 4310,
      "mapping": 4311,
      "finances": 4312,
      "buy": 4313,
      "recur": 4314,
      "regard": 4315,
      "othermic": 4316,
      "effectiveness": 4317,
      "methane": 4318,
      "trail": 4319,
      "hash": 4320,
      "background": 4321,
      "imming": 4322,
      "personality": 4323,
      "computational": 4324,
      "second": 4325,
      "capturing": 4326,
      "stories": 4327,
      "lightweight": 4328,
      "customize": 4329,
      "signaling": 4330,
      "virtually": 4331,
      "tically": 4332,
      "surgical": 4333,
      "generations": 4334,
      "picnic": 4335,
      "accidents": 4336,
      "transparently": 4337,
      "stewards": 4338,
      "successes": 4339,
      "getting": 4340,
      "recognize": 4341,
      "crust": 4342,
      "musical": 4343,
      "muscles": 4344,
      "event": 4345,
      "altered": 4346,
      "alterations": 4347,
      "chromatin": 4348,
      "Imagine": 4349,
      "visionaries": 4350,
      "suggestions": 4351,
      "pire": 4352,
      "pivot": 4353,
      "Eng": 4354,
      "lessons": 4355,
      "facilitates": 4356,
      "looking": 4357,
      "oxygenated": 4358,
      "Applications": 4359,
      "foundational": 4360,
      "heredity": 4361,
      "germ": 4362,
      "gamma": 4363,
      "storytelling": 4364,
      "charges": 4365,
      "stimuli": 4366,
      "ensured": 4367,
      "diagnose": 4368,
      "everyday": 4369,
      "moments": 4370,
      "researchers": 4371,
      "replicate": 4372,
      "direction": 4373,
      "distribut": 4374,
      "affecting": 4375,
      "painting": 4376,
      "browsing": 4377,
      "logistics": 4378,
      "oceans": 4379,
      "inspires": 4380,
      "remaining": 4381,
      "classes": 4382,
      "reflect": 4383,
      "brid": 4384,
      "messenger": 4385,
      "drones": 4386,
      "animations": 4387,
      "implementation": 4388,
      "participate": 4389,
      "equations": 4390,
      "bark": 4391,
      "formulated": 4392,
      "Philos": 4393,
      "antibodies": 4394,
      "observed": 4395,
      "safegu": 4396,
      "emitting": 4397,
      "assembly": 4398,
      "attractions": 4399,
      "conveni": 4400,
      "originated": 4401,
      "swimming": 4402,
      "arrangement": 4403,
      "arrangements": 4404,
      "outdoor": 4405,
      "walk": 4406,
      "commitments": 4407,
      "surveys": 4408,
      "orbitals": 4409,
      "prototyping": 4410,
      "mathematical": 4411,
      "strengths": 4412,
      "fantastic": 4413,
      "domains": 4414,
      "governance": 4415,
      "pancreas": 4416,
      "survive": 4417,
      "tailored": 4418,
      "avoiding": 4419,
      "scheduling": 4420,
      "foot": 4421,
      "eliminating": 4422,
      "dietary": 4423,
      "Embracing": 4424,
      "drawing": 4425,
      "sectors": 4426,
      "robust": 4427,
      "abundant": 4428,
      "Kepler": 4429,
      "websites": 4430,
      "honest": 4431,
      "liquid": 4432,
      "aneously": 4433,
      "gardening": 4434,
      "legendary": 4435,
      "dimensional": 4436,
      "telescopes": 4437,
      "disorders": 4438,
      "civilizations": 4439,
      "fascinating": 4440,
      "houses": 4441,
      "Adapting": 4442,
      "progressive": 4443,
      "ambiguous": 4444,
      "mitochondria": 4445,
      "recruitment": 4446,
      "Autonomous": 4447,
      "Cultivating": 4448,
      "Darwin": 4449,
      "Krebs": 4450,
      "Robotics": 4451,
      "Totally": 4452,
      "celestial": 4453,
      "mnemonic": 4454,
      "vampire": 4455,
      "leisure": 4456,
      "acquiring": 4457,
      "academic": 4458,
      "proliferation": 4459,
      "departments": 4460,
      "ultimately": 4461,
      "regardless": 4462,
      "stewardship": 4463,
      "pivotal": 4464,
      "At": 4465,
      "ABC": 4466,
      "Char": 4467,
      "Climate": 4468,
      "DE": 4469,
      "Fe": 4470,
      "List": 4471,
      "Lavo": 4472,
      "ML": 4473,
      "PE": 4474,
      "Pyruvate": 4475,
      "Sol": 4476,
      "Than": 4477,
      "atic": 4478,
      "aid": 4479,
      "ahead": 4480,
      "bul": 4481,
      "base": 4482,
      "batter": 4483,
      "cu": 4484,
      "categ": 4485,
      "casing": 4486,
      "fast": 4487,
      "gs": 4488,
      "gent": 4489,
      "gut": 4490,
      "hun": 4491,
      "hacks": 4492,
      "ied": 4493,
      "kely": 4494,
      "lan": 4495,
      "lone": 4496,
      "mol": 4497,
      "milit": 4498,
      "nap": 4499,
      "oding": 4500,
      "pack": 4501,
      "pest": 4502,
      "pum": 4503,
      "push": 4504,
      "ptide": 4505,
      "rene": 4506,
      "sus": 4507,
      "senti": 4508,
      "sence": 4509,
      "uity": 4510,
      "umin": 4511,
      "vo": 4512,
      "vess": 4513,
      "ink": 4514,
      "intric": 4515,
      "inher": 4516,
      "inaccessible": 4517,
      "inery": 4518,
      "antic": 4519,
      "onaut": 4520,
      "esis": 4521,
      "ester": 4522,
      "escal": 4523,
      "erk": 4524,
      "inger": 4525,
      "ingen": 4526,
      "encomp": 4527,
      "orize": 4528,
      "reas": 4529,
      "reach": 4530,
      "replace": 4531,
      "retail": 4532,
      "return": 4533,
      "relying": 4534,
      "recycling": 4535,
      "reju": 4536,
      "rephr": 4537,
      "stom": 4538,
      "elong": 4539,
      "ough": 4540,
      "arti": 4541,
      "ission": 4542,
      "itable": 4543,
      "sibility": 4544,
      "sifying": 4545,
      "lives": 4546,
      "likely": 4547,
      "death": 4548,
      "definite": 4549,
      "cancer": 4550,
      "trading": 4551,
      "etal": 4552,
      "unch": 4553,
      "ploid": 4554,
      "absence": 4555,
      "consci": 4556,
      "rivers": 4557,
      "extra": 4558,
      "expos": 4559,
      "means": 4560,
      "chil": 4561,
      "additional": 4562,
      "irical": 4563,
      "spear": 4564,
      "spread": 4565,
      "spark": 4566,
      "embark": 4567,
      "provider": 4568,
      "angle": 4569,
      "echo": 4570,
      "clot": 4571,
      "clothing": 4572,
      "creators": 4573,
      "photo": 4574,
      "overbur": 4575,
      "haploid": 4576,
      "solver": 4577,
      "inclusion": 4578,
      "blog": 4579,
      "obic": 4580,
      "peer": 4581,
      "peptide": 4582,
      "oster": 4583,
      "osting": 4584,
      "interest": 4585,
      "interaction": 4586,
      "internal": 4587,
      "organogen": 4588,
      "parts": 4589,
      "urement": 4590,
      "shells": 4591,
      "cultures": 4592,
      "versati": 4593,
      "grass": 4594,
      "isier": 4595,
      "biology": 4596,
      "bond": 4597,
      "bonding": 4598,
      "basics": 4599,
      "uptake": 4600,
      "flu": 4601,
      "physici": 4602,
      "reduction": 4603,
      "laboratory": 4604,
      "understandings": 4605,
      "warms": 4606,
      "powering": 4607,
      "fire": 4608,
      "gens": 4609,
      "digestive": 4610,
      "computations": 4611,
      "useful": 4612,
      "algae": 4613,
      "code": 4614,
      "poles": 4615,
      "policies": 4616,
      "cleav": 4617,
      "inside": 4618,
      "algorithmic": 4619,
      "playing": 4620,
      "challenge": 4621,
      "dictive": 4622,
      "imposter": 4623,
      "structured": 4624,
      "powerful": 4625,
      "ishes": 4626,
      "general": 4627,
      "advant": 4628,
      "releases": 4629,
      "synthesized": 4630,
      "modeling": 4631,
      "accines": 4632,
      "valid": 4633,
      "limit": 4634,
      "limited": 4635,
      "busy": 4636,
      "adaptive": 4637,
      "divided": 4638,
      "pesticides": 4639,
      "contributes": 4640,
      "consisting": 4641,
      "aviation": 4642,
      "ordinary": 4643,
      "plying": 4644,
      "neurotransmitters": 4645,
      "demands": 4646,
      "univers": 4647,
      "higher": 4648,
      "deloc": 4649,
      "delicious": 4650,
      "combat": 4651,
      "controlled": 4652,
      "ropy": 4653,
      "transmission": 4654,
      "wave": 4655,
      "ipate": 4656,
      "loving": 4657,
      "loops": 4658,
      "look": 4659,
      "masses": 4660,
      "operational": 4661,
      "cryst": 4662,
      "routines": 4663,
      "groundbreaking": 4664,
      "earchers": 4665,
      "dened": 4666,
      "namic": 4667,
      "progester": 4668,
      "sensory": 4669,
      "statis": 4670,
      "plasm": 4671,
      "evolutionary": 4672,
      "conducive": 4673,
      "offspring": 4674,
      "continuously": 4675,
      "burning": 4676,
      "flexible": 4677,
      "therapies": 4678,
      "therapeu": 4679,
      "device": 4680,
      "affect": 4681,
      "motor": 4682,
      "appreciate": 4683,
      "excite": 4684,
      "separates": 4685,
      "procurement": 4686,
      "trying": 4687,
      "cultivating": 4688,
      "novel": 4689,
      "inspired": 4690,
      "transcribed": 4691,
      "Unwinding": 4692,
      "bright": 4693,
      "instruments": 4694,
      "targeted": 4695,
      "telekinetic": 4696,
      "overwhelm": 4697,
      "momentum": 4698,
      "misunderstandings": 4699,
      "destination": 4700,
      "habitats": 4701,
      "barriers": 4702,
      "countries": 4703,
      "antigens": 4704,
      "objective": 4705,
      "restoring": 4706,
      "headed": 4707,
      "Spending": 4708,
      "furnit": 4709,
      "roads": 4710,
      "initiatives": 4711,
      "orbiting": 4712,
      "robotic": 4713,
      "Geologists": 4714,
      "undergoes": 4715,
      "encouragement": 4716,
      "Genetic": 4717,
      "niche": 4718,
      "walking": 4719,
      "rock": 4720,
      "chloroplasts": 4721,
      "gotiating": 4722,
      "differentiate": 4723,
      "Reg": 4724,
      "astronaut": 4725,
      "machinery": 4726,
      "nitrogen": 4727,
      "mathematics": 4728,
      "journaling": 4729,
      "cytoplasm": 4730,
      "schedules": 4731,
      "clients": 4732,
      "meeting": 4733,
      "showcasing": 4734,
      "preservation": 4735,
      "Researchers": 4736,
      "watching": 4737,
      "diversifying": 4738,
      "extreme": 4739,
      "masterminds": 4740,
      "coordinate": 4741,
      "incorporating": 4742,
      "Chl": 4743,
      "lungs": 4744,
      "regeneration": 4745,
      "vulnerabilities": 4746,
      "forestation": 4747,
      "talented": 4748,
      "Protons": 4749,
      "literacy": 4750,
      "replenish": 4751,
      "adoption": 4752,
      "nucleotides": 4753,
      "Boosting": 4754,
      "Maxwell": 4755,
      "enzyme": 4756,
      "empirical": 4757,
      "clinical": 4758,
      "Collaborating": 4759,
      "1905": 4760,
      "infections": 4761,
      "fruition": 4762,
      "olecul": 4763,
      "payments": 4764,
      "tackle": 4765,
      "geometries": 4766,
      "picnicking": 4767,
      "Engine": 4768,
      "distributed": 4769,
      "convenience": 4770,
      "Atlan": 4771,
      "ABCDE": 4772,
      "Charles": 4773,
      "Listening": 4774,
      "Lavoisier": 4775,
      "categorize": 4776,
      "military": 4777,
      "renegotiating": 4778,
      "sentiment": 4779,
      "vessels": 4780,
      "intricate": 4781,
      "anticipate": 4782,
      "escalate": 4783,
      "ingenuity": 4784,
      "encompasses": 4785,
      "rejuven": 4786,
      "rephrase": 4787,
      "conscious": 4788,
      "spearheaded": 4789,
      "overburdened": 4790,
      "organogenesis": 4791,
      "physicist": 4792,
      "cleavage": 4793,
      "progesterone": 4794,
      "furniture": 4795,
      "Atlantis": 4796,
      "0th": 4797,
      "14": 4798,
      "17": 4799,
      "2O": 4800,
      "20th": 4801,
      "Ato": 4802,
      "Berm": 4803,
      "Cy": 4804,
      "Cal": 4805,
      "Cas": 4806,
      "Celebr": 4807,
      "Dr": 4808,
      "Er": 4809,
      "Epi": 4810,
      "Elec": 4811,
      "Fin": 4812,
      "Fran": 4813,
      "Hu": 4814,
      "Hy": 4815,
      "Har": 4816,
      "If": 4817,
      "Jav": 4818,
      "Kel": 4819,
      "Ma": 4820,
      "Med": 4821,
      "Mend": 4822,
      "Ns": 4823,
      "Osm": 4824,
      "Orig": 4825,
      "Py": 4826,
      "Rud": 4827,
      "Sy": 4828,
      "Sir": 4829,
      "Sust": 4830,
      "Scri": 4831,
      "Scientists": 4832,
      "Ti": 4833,
      "Tri": 4834,
      "UV": 4835,
      "Vaccines": 4836,
      "adi": 4837,
      "aScri": 4838,
      "bt": 4839,
      "bing": 4840,
      "bir": 4841,
      "billi": 4842,
      "cues": 4843,
      "casc": 4844,
      "eased": 4845,
      "fence": 4846,
      "fred": 4847,
      "funding": 4848,
      "faster": 4849,
      "fMRI": 4850,
      "finger": 4851,
      "hiring": 4852,
      "hacking": 4853,
      "ier": 4854,
      "klin": 4855,
      "lap": 4856,
      "laying": 4857,
      "lending": 4858,
      "mely": 4859,
      "mune": 4860,
      "might": 4861,
      "ozone": 4862,
      "picious": 4863,
      "passion": 4864,
      "shel": 4865,
      "swe": 4866,
      "sound": 4867,
      "tex": 4868,
      "tone": 4869,
      "taneously": 4870,
      "ugh": 4871,
      "utri": 4872,
      "umul": 4873,
      "vity": 4874,
      "wess": 4875,
      "wides": 4876,
      "ye": 4877,
      "yet": 4878,
      "year": 4879,
      "intr": 4880,
      "ano": 4881,
      "anatom": 4882,
      "tid": 4883,
      "tire": 4884,
      "eric": 4885,
      "ensu": 4886,
      "entical": 4887,
      "enough": 4888,
      "thon": 4889,
      "alco": 4890,
      "always": 4891,
      "remark": 4892,
      "reproductive": 4893,
      "reinforcement": 4894,
      "robots": 4895,
      "toler": 4896,
      "tough": 4897,
      "theft": 4898,
      "acu": 4899,
      "isoto": 4900,
      "proven": 4901,
      "proactive": 4902,
      "propor": 4903,
      "prowess": 4904,
      "itar": 4905,
      "itting": 4906,
      "enters": 4907,
      "olocation": 4908,
      "sius": 4909,
      "size": 4910,
      "lighting": 4911,
      "depolarization": 4912,
      "fores": 4913,
      "train": 4914,
      "reson": 4915,
      "unks": 4916,
      "urons": 4917,
      "abstr": 4918,
      "agon": 4919,
      "usual": 4920,
      "ulent": 4921,
      "ultra": 4922,
      "ainable": 4923,
      "dilem": 4924,
      "excess": 4925,
      "exten": 4926,
      "metics": 4927,
      "memor": 4928,
      "ching": 4929,
      "chunks": 4930,
      "ades": 4931,
      "advers": 4932,
      "quick": 4933,
      "ospace": 4934,
      "ograp": 4935,
      "spo": 4936,
      "spaces": 4937,
      "occ": 4938,
      "ghost": 4939,
      "identical": 4940,
      "angels": 4941,
      "words": 4942,
      "indul": 4943,
      "formed": 4944,
      "endit": 4945,
      "ended": 4946,
      "mantle": 4947,
      "entials": 4948,
      "disabilities": 4949,
      "compared": 4950,
      "motive": 4951,
      "seg": 4952,
      "seques": 4953,
      "allel": 4954,
      "ratic": 4955,
      "raise": 4956,
      "haz": 4957,
      "workspace": 4958,
      "thermal": 4959,
      "pread": 4960,
      "ectural": 4961,
      "observation": 4962,
      "observing": 4963,
      "interface": 4964,
      "explains": 4965,
      "wear": 4966,
      "wealth": 4967,
      "cols": 4968,
      "illance": 4969,
      "elections": 4970,
      "culinary": 4971,
      "actors": 4972,
      "underwater": 4973,
      "undertake": 4974,
      "boiling": 4975,
      "ausius": 4976,
      "variability": 4977,
      "bread": 4978,
      "breeding": 4979,
      "region": 4980,
      "decline": 4981,
      "decoded": 4982,
      "declut": 4983,
      "deceased": 4984,
      "guitar": 4985,
      "improves": 4986,
      "realm": 4987,
      "carefully": 4988,
      "uda": 4989,
      "leader": 4990,
      "drives": 4991,
      "pleas": 4992,
      "ledging": 4993,
      "immun": 4994,
      "warm": 4995,
      "fighting": 4996,
      "diffusion": 4997,
      "personalizing": 4998,
      "genome": 4999,
      "capital": 5000,
      "genetically": 5001,
      "builds": 5002,
      "enced": 5003,
      "encies": 5004,
      "encoun": 5005,
      "subatomic": 5006,
      "difference": 5007,
      "practical": 5008,
      "Things": 5009,
      "insulin": 5010,
      "expendit": 5011,
      "pathway": 5012,
      "moning": 5013,
      "downtime": 5014,
      "fosters": 5015,
      "generated": 5016,
      "generally": 5017,
      "automatic": 5018,
      "automotive": 5019,
      "model": 5020,
      "launch": 5021,
      "ospheric": 5022,
      "rise": 5023,
      "accumul": 5024,
      "purpose": 5025,
      "futur": 5026,
      "designated": 5027,
      "studying": 5028,
      "certifications": 5029,
      "particle": 5030,
      "refram": 5031,
      "Mindfulness": 5032,
      "father": 5033,
      "order": 5034,
      "altering": 5035,
      "worldwide": 5036,
      "copied": 5037,
      "relaxing": 5038,
      "Immune": 5039,
      "planetary": 5040,
      "nerve": 5041,
      "simulation": 5042,
      "simulating": 5043,
      "simultaneously": 5044,
      "platform": 5045,
      "converted": 5046,
      "glucagon": 5047,
      "breakdown": 5048,
      "piano": 5049,
      "navigation": 5050,
      "determine": 5051,
      "responsi": 5052,
      "Encour": 5053,
      "waiting": 5054,
      "accessories": 5055,
      "speak": 5056,
      "lectures": 5057,
      "transformed": 5058,
      "transformations": 5059,
      "immersion": 5060,
      "safely": 5061,
      "191": 5062,
      "cosmetics": 5063,
      "Wegener": 5064,
      "alternate": 5065,
      "cores": 5066,
      "course": 5067,
      "Deep": 5068,
      "games": 5069,
      "write": 5070,
      "societies": 5071,
      "societal": 5072,
      "connection": 5073,
      "camping": 5074,
      "simply": 5075,
      "containing": 5076,
      "everyone": 5077,
      "everything": 5078,
      "secret": 5079,
      "given": 5080,
      "learners": 5081,
      "atmospheric": 5082,
      "Experi": 5083,
      "accurately": 5084,
      "harnesses": 5085,
      "advancement": 5086,
      "archae": 5087,
      "fraudulent": 5088,
      "disruptions": 5089,
      "Biotechnology": 5090,
      "Clerk": 5091,
      "Clausius": 5092,
      "halation": 5093,
      "instructional": 5094,
      "instructors": 5095,
      "dynamic": 5096,
      "remains": 5097,
      "respiratory": 5098,
      "diagnoses": 5099,
      "doubt": 5100,
      "transitioning": 5101,
      "participation": 5102,
      "afford": 5103,
      "equator": 5104,
      "farming": 5105,
      "Alfred": 5106,
      "barren": 5107,
      "happy": 5108,
      "ximately": 5109,
      "distributions": 5110,
      "accessibility": 5111,
      "architectural": 5112,
      "assertive": 5113,
      "hardware": 5114,
      "filter": 5115,
      "quatic": 5116,
      "emitted": 5117,
      "flows": 5118,
      "polypeptide": 5119,
      "hosting": 5120,
      "mystical": 5121,
      "initiating": 5122,
      "orbits": 5123,
      "orbital": 5124,
      "attraction": 5125,
      "aerobic": 5126,
      "aerospace": 5127,
      "griev": 5128,
      "switch": 5129,
      "delivering": 5130,
      "referred": 5131,
      "rocky": 5132,
      "sugar": 5133,
      "commitment": 5134,
      "companions": 5135,
      "differentiation": 5136,
      "surveillance": 5137,
      "semin": 5138,
      "protocols": 5139,
      "audience": 5140,
      "survival": 5141,
      "speeds": 5142,
      "appliances": 5143,
      "reshaped": 5144,
      "Neurons": 5145,
      "foil": 5146,
      "gradually": 5147,
      "extremely": 5148,
      "indicative": 5149,
      "incorporate": 5150,
      "Like": 5151,
      "Overcoming": 5152,
      "fungi": 5153,
      "gaps": 5154,
      "textbooks": 5155,
      "style": 5156,
      "ographic": 5157,
      "poisons": 5158,
      "plasticity": 5159,
      "beliefs": 5160,
      "Nanotechnology": 5161,
      "sensing": 5162,
      "approximately": 5163,
      "movies": 5164,
      "neuroimaging": 5165,
      "Advanced": 5166,
      "candidates": 5167,
      "Oxid": 5168,
      "discrimination": 5169,
      "acknowledging": 5170,
      "skateboard": 5171,
      "oxidized": 5172,
      "roscopy": 5173,
      "circulatory": 5174,
      "executed": 5175,
      "counterfeiting": 5176,
      "contextual": 5177,
      "recurrent": 5178,
      "trailbla": 5179,
      "backgrounds": 5180,
      "safeguarding": 5181,
      "PET": 5182,
      "Thanks": 5183,
      "hunting": 5184,
      "pumps": 5185,
      "suspicious": 5186,
      "extraordinary": 5187,
      "interested": 5188,
      "versatile": 5189,
      "crystal": 5190,
      "therapeutic": 5191,
      "Regular": 5192,
      "olecules": 5193,
      "Engineers": 5194,
      "consciousness": 5195,
      "17th": 5196,
      "Bermuda": 5197,
      "Calvin": 5198,
      "Cas9": 5199,
      "Celebrating": 5200,
      "Franklin": 5201,
      "JavaScri": 5202,
      "Kelvin": 5203,
      "Meditation": 5204,
      "Mendel": 5205,
      "Osmosis": 5206,
      "Origin": 5207,
      "Python": 5208,
      "Rudolf": 5209,
      "Sustainable": 5210,
      "Time": 5211,
      "Triangle": 5212,
      "cascading": 5213,
      "widespread": 5214,
      "ensures": 5215,
      "alcohol": 5216,
      "remarkable": 5217,
      "isotopes": 5218,
      "abstract": 5219,
      "dilemmas": 5220,
      "ography": 5221,
      "sequestration": 5222,
      "accumulation": 5223,
      "reframing": 5224,
      "Encouraging": 5225,
      "speaker": 5226,
      "Experimenting": 5227,
      "JavaScript": 5228,
      "10": 5229,
      "Bases": 5230,
      "Big": 5231,
      "CS": 5232,
      "Cric": 5233,
      "CNS": 5234,
      "Dig": 5235,
      "EM": 5236,
      "Evolution": 5237,
      "Fr": 5238,
      "Greg": 5239,
      "H2O": 5240,
      "IT": 5241,
      "Johan": 5242,
      "Mu": 5243,
      "Men": 5244,
      "Mic": 5245,
      "Night": 5246,
      "Of": 5247,
      "Pre": 5248,
      "Palind": 5249,
      "Ros": 5250,
      "Rings": 5251,
      "ST": 5252,
      "Stu": 5253,
      "Tre": 5254,
      "Troy": 5255,
      "Wil": 5256,
      "Wats": 5257,
      "akes": 5258,
      "aquatic": 5259,
      "bow": 5260,
      "bind": 5261,
      "cing": 5262,
      "craw": 5263,
      "cock": 5264,
      "dating": 5265,
      "dust": 5266,
      "denses": 5267,
      "eving": 5268,
      "either": 5269,
      "fly": 5270,
      "fine": 5271,
      "gossi": 5272,
      "hur": 5273,
      "ib": 5274,
      "kins": 5275,
      "kali": 5276,
      "lic": 5277,
      "lar": 5278,
      "late": 5279,
      "lose": 5280,
      "mist": 5281,
      "magn": 5282,
      "magnetism": 5283,
      "mosis": 5284,
      "nes": 5285,
      "nor": 5286,
      "nur": 5287,
      "olet": 5288,
      "oids": 5289,
      "pet": 5290,
      "pod": 5291,
      "pend": 5292,
      "pressing": 5293,
      "paced": 5294,
      "run": 5295,
      "rad": 5296,
      "rust": 5297,
      "sat": 5298,
      "sou": 5299,
      "sab": 5300,
      "selling": 5301,
      "tories": 5302,
      "tiny": 5303,
      "uk": 5304,
      "vents": 5305,
      "wil": 5306,
      "want": 5307,
      "will": 5308,
      "wood": 5309,
      "wise": 5310,
      "inst": 5311,
      "inate": 5312,
      "til": 5313,
      "tio": 5314,
      "tight": 5315,
      "oning": 5316,
      "once": 5317,
      "onential": 5318,
      "erce": 5319,
      "ench": 5320,
      "thu": 5321,
      "thri": 5322,
      "orts": 5323,
      "orches": 5324,
      "alone": 5325,
      "already": 5326,
      "reve": 5327,
      "rehe": 5328,
      "remo": 5329,
      "repr": 5330,
      "reques": 5331,
      "reactivity": 5332,
      "reefs": 5333,
      "roid": 5334,
      "roactively": 5335,
      "atology": 5336,
      "stac": 5337,
      "stun": 5338,
      "elet": 5339,
      "thetic": 5340,
      "ouds": 5341,
      "omic": 5342,
      "entropy": 5343,
      "entrepr": 5344,
      "edtech": 5345,
      "ucet": 5346,
      "sives": 5347,
      "libri": 5348,
      "defin": 5349,
      "depic": 5350,
      "deforestation": 5351,
      "forests": 5352,
      "tractive": 5353,
      "trapping": 5354,
      "violet": 5355,
      "eters": 5356,
      "unit": 5357,
      "unexpect": 5358,
      "unwinding": 5359,
      "abling": 5360,
      "abnormal": 5361,
      "contrac": 5362,
      "condenses": 5363,
      "apons": 5364,
      "ulate": 5365,
      "ulses": 5366,
      "ulums": 5367,
      "opens": 5368,
      "optical": 5369,
      "ayer": 5370,
      "illed": 5371,
      "otech": 5372,
      "otaging": 5373,
      "otcam": 5374,
      "meable": 5375,
      "adds": 5376,
      "addictive": 5377,
      "qubits": 5378,
      "iron": 5379,
      "impossible": 5380,
      "ogene": 5381,
      "ama": 5382,
      "sport": 5383,
      "spreading": 5384,
      "teries": 5385,
      "hift": 5386,
      "ocks": 5387,
      "oclim": 5388,
      "ocratic": 5389,
      "empowers": 5390,
      "emade": 5391,
      "empowering": 5392,
      "ellite": 5393,
      "perpolarization": 5394,
      "permeable": 5395,
      "strual": 5396,
      "strati": 5397,
      "strulation": 5398,
      "clouds": 5399,
      "white": 5400,
      "Inter": 5401,
      "Inters": 5402,
      "neither": 5403,
      "formal": 5404,
      "commerce": 5405,
      "managed": 5406,
      "entire": 5407,
      "notes": 5408,
      "romic": 5409,
      "disaster": 5410,
      "disabling": 5411,
      "compar": 5412,
      "compet": 5413,
      "seen": 5414,
      "overlaying": 5415,
      "raising": 5416,
      "ratio": 5417,
      "ustered": 5418,
      "prem": 5419,
      "prep": 5420,
      "ength": 5421,
      "ectroscopy": 5422,
      "makes": 5423,
      "eneur": 5424,
      "obstruc": 5425,
      "observe": 5426,
      "obstac": 5427,
      "fici": 5428,
      "output": 5429,
      "pea": 5430,
      "peats": 5431,
      "ryonic": 5432,
      "interoper": 5433,
      "interacting": 5434,
      "interconnected": 5435,
      "mbs": 5436,
      "prayer": 5437,
      "explor": 5438,
      "explain": 5439,
      "weapons": 5440,
      "parents": 5441,
      "parallel": 5442,
      "ured": 5443,
      "illumin": 5444,
      "acters": 5445,
      "actable": 5446,
      "experienced": 5447,
      "structural": 5448,
      "bohydr": 5449,
      "bootcam": 5450,
      "assets": 5451,
      "bran": 5452,
      "grate": 5453,
      "graphy": 5454,
      "varieties": 5455,
      "tasking": 5456,
      "recall": 5457,
      "record": 5458,
      "ovulation": 5459,
      "mindful": 5460,
      "bio": 5461,
      "biases": 5462,
      "biotech": 5463,
      "bonded": 5464,
      "taste": 5465,
      "taken": 5466,
      "upfront": 5467,
      "estine": 5468,
      "estrogen": 5469,
      "timely": 5470,
      "really": 5471,
      "standards": 5472,
      "chemicals": 5473,
      "curtain": 5474,
      "marks": 5475,
      "ician": 5476,
      "icists": 5477,
      "regulations": 5478,
      "offerings": 5479,
      "achieved": 5480,
      "genomes": 5481,
      "genomic": 5482,
      "ignite": 5483,
      "positions": 5484,
      "carbohydr": 5485,
      "centuries": 5486,
      "capac": 5487,
      "hyperpolarization": 5488,
      "thesis": 5489,
      "stores": 5490,
      "subtractive": 5491,
      "cooperation": 5492,
      "expenses": 5493,
      "exponential": 5494,
      "signal": 5495,
      "axis": 5496,
      "impulses": 5497,
      "enhancement": 5498,
      "advis": 5499,
      "advances": 5500,
      "ancis": 5501,
      "synthesize": 5502,
      "imagery": 5503,
      "distinc": 5504,
      "rising": 5505,
      "treating": 5506,
      "purification": 5507,
      "designed": 5508,
      "porary": 5509,
      "environmentalist": 5510,
      "holding": 5511,
      "naturally": 5512,
      "redox": 5513,
      "pests": 5514,
      "protection": 5515,
      "performing": 5516,
      "continue": 5517,
      "refresh": 5518,
      "brains": 5519,
      "adaptations": 5520,
      "fake": 5521,
      "faucet": 5522,
      "centralized": 5523,
      "facts": 5524,
      "superposition": 5525,
      "discoveries": 5526,
      "construct": 5527,
      "democr": 5528,
      "democratic": 5529,
      "tails": 5530,
      "mechanism": 5531,
      "foods": 5532,
      "enabled": 5533,
      "shaped": 5534,
      "converting": 5535,
      "integration": 5536,
      "malicious": 5537,
      "rapport": 5538,
      "neuronal": 5539,
      "iosmosis": 5540,
      "wait": 5541,
      "hydropower": 5542,
      "depth": 5543,
      "intestine": 5544,
      "venture": 5545,
      "avail": 5546,
      "membranes": 5547,
      "dedicated": 5548,
      "coral": 5549,
      "correc": 5550,
      "correlations": 5551,
      "enjoying": 5552,
      "thankful": 5553,
      "benefit": 5554,
      "named": 5555,
      "exams": 5556,
      "visualizing": 5557,
      "Viruses": 5558,
      "plasma": 5559,
      "equilibri": 5560,
      "absorption": 5561,
      "charged": 5562,
      "characters": 5563,
      "cleaner": 5564,
      "reliable": 5565,
      "relieving": 5566,
      "multiplying": 5567,
      "multitasking": 5568,
      "descriptive": 5569,
      "directional": 5570,
      "translational": 5571,
      "affects": 5572,
      "streamlining": 5573,
      "Clustered": 5574,
      "hala": 5575,
      "mitosis": 5576,
      "boosting": 5577,
      "dying": 5578,
      "logy": 5579,
      "lipid": 5580,
      "bril": 5581,
      "instrument": 5582,
      "mediation": 5583,
      "partners": 5584,
      "coordinating": 5585,
      "pollination": 5586,
      "implement": 5587,
      "telepathy": 5588,
      "casts": 5589,
      "evolve": 5590,
      "lifting": 5591,
      "lifelong": 5592,
      "couns": 5593,
      "gastrulation": 5594,
      "injuries": 5595,
      "follic": 5596,
      "magical": 5597,
      "yields": 5598,
      "biomolecules": 5599,
      "accelerators": 5600,
      "Ecologists": 5601,
      "visibility": 5602,
      "horiz": 5603,
      "initiated": 5604,
      "ontology": 5605,
      "philosophy": 5606,
      "fertilizers": 5607,
      "Geor": 5608,
      "aerial": 5609,
      "defense": 5610,
      "maximizing": 5611,
      "lattice": 5612,
      "tectonic": 5613,
      "cosmology": 5614,
      "Neuros": 5615,
      "Repeats": 5616,
      "astronomers": 5617,
      "chemiosmosis": 5618,
      "menstrual": 5619,
      "aliens": 5620,
      "prepares": 5621,
      "journals": 5622,
      "fantasy": 5623,
      "homemade": 5624,
      "joys": 5625,
      "landmarks": 5626,
      "panels": 5627,
      "stepping": 5628,
      "plug": 5629,
      "execution": 5630,
      "successive": 5631,
      "hifting": 5632,
      "colonize": 5633,
      "colonization": 5634,
      "18th": 5635,
      "Trans": 5636,
      "easy": 5637,
      "easier": 5638,
      "eliminate": 5639,
      "weekends": 5640,
      "Embryonic": 5641,
      "Short": 5642,
      "Shamb": 5643,
      "household": 5644,
      "sector": 5645,
      "invasive": 5646,
      "abundance": 5647,
      "translations": 5648,
      "expanding": 5649,
      "thyroid": 5650,
      "rigid": 5651,
      "summoning": 5652,
      "stronger": 5653,
      "quieter": 5654,
      "pioneers": 5655,
      "pioneering": 5656,
      "receives": 5657,
      "craf": 5658,
      "lute": 5659,
      "salts": 5660,
      "utilized": 5661,
      "outermost": 5662,
      "ograph": 5663,
      "triggering": 5664,
      "poison": 5665,
      "particularly": 5666,
      "mixture": 5667,
      "cheese": 5668,
      "rainbow": 5669,
      "upselling": 5670,
      "strives": 5671,
      "dividing": 5672,
      "divides": 5673,
      "negotiate": 5674,
      "explosives": 5675,
      "prescribe": 5676,
      "prescriptive": 5677,
      "hydrated": 5678,
      "fairness": 5679,
      "favorable": 5680,
      "favorite": 5681,
      "frequency": 5682,
      "victories": 5683,
      "recovery": 5684,
      "updates": 5685,
      "microorganisms": 5686,
      "shapeshifting": 5687,
      "destroyed": 5688,
      "fulfillment": 5689,
      "plumber": 5690,
      "CoA": 5691,
      "Potter": 5692,
      "melting": 5693,
      "escaping": 5694,
      "retroactively": 5695,
      "acetyl": 5696,
      "whisperer": 5697,
      "secondary": 5698,
      "Philosophy": 5699,
      "leisurely": 5700,
      "naptic": 5701,
      "reasoning": 5702,
      "stomach": 5703,
      "clotting": 5704,
      "fireworks": 5705,
      "statistics": 5706,
      "Harry": 5707,
      "shelter": 5708,
      "yeast": 5709,
      "intractable": 5710,
      "anatomy": 5711,
      "tidal": 5712,
      "proportional": 5713,
      "foresight": 5714,
      "usually": 5715,
      "ultraviolet": 5716,
      "quickly": 5717,
      "hazards": 5718,
      "decluttering": 5719,
      "pleasure": 5720,
      "immunity": 5721,
      "futurist": 5722,
      "affordability": 5723,
      "Regularly": 5724,
      "Crick": 5725,
      "Francis": 5726,
      "Gregor": 5727,
      "Johannes": 5728,
      "Nightcraw": 5729,
      "Palindromic": 5730,
      "Rosalind": 5731,
      "STEM": 5732,
      "Studying": 5733,
      "Trek": 5734,
      "Wilkins": 5735,
      "Watson": 5736,
      "cocktails": 5737,
      "gossip": 5738,
      "larger": 5739,
      "mistakes": 5740,
      "pendulums": 5741,
      "satellite": 5742,
      "soul": 5743,
      "sabotaging": 5744,
      "rehears": 5745,
      "stunts": 5746,
      "entrepreneur": 5747,
      "depicted": 5748,
      "unexpected": 5749,
      "contractual": 5750,
      "ogeneous": 5751,
      "oclimatology": 5752,
      "Interspaced": 5753,
      "obstructing": 5754,
      "obstacles": 5755,
      "bootcamps": 5756,
      "carbohydrates": 5757,
      "democracy": 5758,
      "equilibrium": 5759,
      "Shambhala": 5760,
      "Nightcrawler": 5761,
      "+]": 5762,
      "13": 5763,
      "28": 5764,
      "59": 5765,
      "5G": 5766,
      "Av": 5767,
      "Bal": 5768,
      "Bang": 5769,
      "Car": 5770,
      "Chem": 5771,
      "EE": 5772,
      "EV": 5773,
      "Ele": 5774,
      "Eff": 5775,
      "Fer": 5776,
      "HT": 5777,
      "Ionic": 5778,
      "Lew": 5779,
      "Location": 5780,
      "Met": 5781,
      "Mut": 5782,
      "NNs": 5783,
      "OH": 5784,
      "Po": 5785,
      "Ple": 5786,
      "Pers": 5787,
      "Ru": 5788,
      "Rec": 5789,
      "Red": 5790,
      "Sur": 5791,
      "Tog": 5792,
      "There": 5793,
      "ause": 5794,
      "afra": 5795,
      "aque": 5796,
      "aken": 5797,
      "ban": 5798,
      "boun": 5799,
      "bili": 5800,
      "bbles": 5801,
      "count": 5802,
      "cogen": 5803,
      "dation": 5804,
      "dark": 5805,
      "ea": 5806,
      "eth": 5807,
      "ether": 5808,
      "eps": 5809,
      "fuse": 5810,
      "flight": 5811,
      "fresh": 5812,
      "fountain": 5813,
      "gover": 5814,
      "gativity": 5815,
      "hust": 5816,
      "ie": 5817,
      "ior": 5818,
      "ights": 5819,
      "iotic": 5820,
      "ioid": 5821,
      "jud": 5822,
      "ked": 5823,
      "kid": 5824,
      "koid": 5825,
      "kitch": 5826,
      "lend": 5827,
      "later": 5828,
      "mers": 5829,
      "mir": 5830,
      "nas": 5831,
      "nar": 5832,
      "nich": 5833,
      "nest": 5834,
      "nthesis": 5835,
      "oks": 5836,
      "oplanets": 5837,
      "pts": 5838,
      "ptions": 5839,
      "pins": 5840,
      "patch": 5841,
      "ron": 5842,
      "son": 5843,
      "sity": 5844,
      "squ": 5845,
      "sour": 5846,
      "slow": 5847,
      "uth": 5848,
      "voc": 5849,
      "vacu": 5850,
      "wis": 5851,
      "wit": 5852,
      "wine": 5853,
      "whether": 5854,
      "xide": 5855,
      "zers": 5856,
      "zero": 5857,
      "ΔG": 5858,
      "inal": 5859,
      "inations": 5860,
      "inser": 5861,
      "independence": 5862,
      "anes": 5863,
      "anaerobic": 5864,
      "tiful": 5865,
      "onbo": 5866,
      "era": 5867,
      "erts": 5868,
      "erals": 5869,
      "erine": 5870,
      "erman": 5871,
      "erie": 5872,
      "ingu": 5873,
      "enclosed": 5874,
      "enthu": 5875,
      "enjoys": 5876,
      "orless": 5877,
      "alle": 5878,
      "alism": 5879,
      "retain": 5880,
      "retri": 5881,
      "reactive": 5882,
      "reverse": 5883,
      "remember": 5884,
      "representation": 5885,
      "room": 5886,
      "atosphere": 5887,
      "stack": 5888,
      "status": 5889,
      "elines": 5890,
      "tour": 5891,
      "toine": 5892,
      "touch": 5893,
      "theater": 5894,
      "icine": 5895,
      "icill": 5896,
      "leic": 5897,
      "asthen": 5898,
      "outing": 5899,
      "arrang": 5900,
      "arteries": 5901,
      "ece": 5902,
      "eco": 5903,
      "profici": 5904,
      "ites": 5905,
      "itance": 5906,
      "edicine": 5907,
      "uctu": 5908,
      "ucleic": 5909,
      "sight": 5910,
      "siasts": 5911,
      "sivity": 5912,
      "live": 5913,
      "limbs": 5914,
      "deoxy": 5915,
      "dealing": 5916,
      "detox": 5917,
      "deoxygenated": 5918,
      "veins": 5919,
      "viate": 5920,
      "reser": 5921,
      "restric": 5922,
      "resumes": 5923,
      "etern": 5924,
      "unte": 5925,
      "unint": 5926,
      "undifferenti": 5927,
      "urities": 5928,
      "urice": 5929,
      "confer": 5930,
      "condens": 5931,
      "hear": 5932,
      "heard": 5933,
      "heav": 5934,
      "healing": 5935,
      "ribon": 5936,
      "appe": 5937,
      "appoint": 5938,
      "ulting": 5939,
      "comfort": 5940,
      "dily": 5941,
      "dible": 5942,
      "dipo": 5943,
      "dilation": 5944,
      "opening": 5945,
      "oparticles": 5946,
      "opioid": 5947,
      "uterine": 5948,
      "exter": 5949,
      "exhi": 5950,
      "exces": 5951,
      "exothermic": 5952,
      "exoplanets": 5953,
      "otes": 5954,
      "meals": 5955,
      "chamb": 5956,
      "aders": 5957,
      "adver": 5958,
      "adverse": 5959,
      "suff": 5960,
      "impar": 5961,
      "verbal": 5962,
      "ammation": 5963,
      "ameters": 5964,
      "spind": 5965,
      "spicy": 5966,
      "spraw": 5967,
      "spont": 5968,
      "hire": 5969,
      "ocy": 5970,
      "ems": 5971,
      "beat": 5972,
      "beau": 5973,
      "beaut": 5974,
      "oderm": 5975,
      "odorless": 5976,
      "byproducts": 5977,
      "byproduct": 5978,
      "ident": 5979,
      "ided": 5980,
      "idity": 5981,
      "ancements": 5982,
      "stratosphere": 5983,
      "indis": 5984,
      "near": 5985,
      "neys": 5986,
      "endothermic": 5987,
      "commens": 5988,
      "ologous": 5989,
      "ffer": 5990,
      "inequality": 5991,
      "volunte": 5992,
      "discharge": 5993,
      "disagreements": 5994,
      "dissemin": 5995,
      "movers": 5996,
      "mobili": 5997,
      "alls": 5998,
      "teem": 5999,
      "worked": 6000,
      "sym": 6001,
      "symb": 6002,
      "therford": 6003,
      "inclusivity": 6004,
      "pret": 6005,
      "preven": 6006,
      "predation": 6007,
      "days": 6008,
      "engaged": 6009,
      "mast": 6010,
      "sorting": 6011,
      "cium": 6012,
      "civic": 6013,
      "outlook": 6014,
      "intermedi": 6015,
      "intermolecular": 6016,
      "price": 6017,
      "geolocation": 6018,
      "ysicists": 6019,
      "paving": 6020,
      "weaken": 6021,
      "developments": 6022,
      "parameters": 6023,
      "shocks": 6024,
      "undermine": 6025,
      "underpins": 6026,
      "experiment": 6027,
      "board": 6028,
      "bodily": 6029,
      "assment": 6030,
      "asset": 6031,
      "skin": 6032,
      "brings": 6033,
      "maps": 6034,
      "althy": 6035,
      "sets": 6036,
      "breaches": 6037,
      "grocer": 6038,
      "bubbles": 6039,
      "buffer": 6040,
      "decor": 6041,
      "decre": 6042,
      "decoding": 6043,
      "decided": 6044,
      "biking": 6045,
      "bitions": 6046,
      "biotechnology": 6047,
      "innate": 6048,
      "tast": 6049,
      "upon": 6050,
      "breath": 6051,
      "pothes": 6052,
      "realities": 6053,
      "floor": 6054,
      "fluctu": 6055,
      "careful": 6056,
      "promises": 6057,
      "promising": 6058,
      "priate": 6059,
      "primar": 6060,
      "reduces": 6061,
      "itism": 6062,
      "mini": 6063,
      "minerals": 6064,
      "curious": 6065,
      "chains": 6066,
      "onegativity": 6067,
      "syndro": 6068,
      "securing": 6069,
      "guidelines": 6070,
      "carry": 6071,
      "carriers": 6072,
      "capsid": 6073,
      "calcium": 6074,
      "hypothes": 6075,
      "ensed": 6076,
      "collaborated": 6077,
      "coat": 6078,
      "cook": 6079,
      "coaches": 6080,
      "differential": 6081,
      "promotes": 6082,
      "because": 6083,
      "glo": 6084,
      "signature": 6085,
      "settings": 6086,
      "Healthy": 6087,
      "enabler": 6088,
      "harmon": 6089,
      "harassment": 6090,
      "impurities": 6091,
      "twink": 6092,
      "ishing": 6093,
      "enhancements": 6094,
      "lakes": 6095,
      "lakoid": 6096,
      "distingu": 6097,
      "tree": 6098,
      "value": 6099,
      "optimism": 6100,
      "optimizes": 6101,
      "designers": 6102,
      "porting": 6103,
      "markets": 6104,
      "rule": 6105,
      "incredible": 6106,
      "does": 6107,
      "extinc": 6108,
      "continues": 6109,
      "necting": 6110,
      "spacetime": 6111,
      "nutrition": 6112,
      "faces": 6113,
      "facing": 6114,
      "facial": 6115,
      "drogen": 6116,
      "constructing": 6117,
      "mechanic": 6118,
      "beneath": 6119,
      "Art": 6120,
      "patience": 6121,
      "integrating": 6122,
      "breakfast": 6123,
      "pigment": 6124,
      "malware": 6125,
      "combined": 6126,
      "controls": 6127,
      "ropism": 6128,
      "transmits": 6129,
      "Engl": 6130,
      "radiometric": 6131,
      "hydroly": 6132,
      "hydroxide": 6133,
      "situation": 6134,
      "causing": 6135,
      "operates": 6136,
      "oxygenation": 6137,
      "manufactur": 6138,
      "celebrity": 6139,
      "talk": 6140,
      "groundwork": 6141,
      "corrup": 6142,
      "stays": 6143,
      "respectful": 6144,
      "costly": 6145,
      "wastage": 6146,
      "examining": 6147,
      "brainstorm": 6148,
      "transmitted": 6149,
      "popular": 6150,
      "assessing": 6151,
      "plastics": 6152,
      "mitigation": 6153,
      "inflammation": 6154,
      "consulting": 6155,
      "distract": 6156,
      "camarad": 6157,
      "scales": 6158,
      "scalable": 6159,
      "informative": 6160,
      "simple": 6161,
      "tracting": 6162,
      "catalyst": 6163,
      "giving": 6164,
      "descriptions": 6165,
      "couldn": 6166,
      "Expl": 6167,
      "medications": 6168,
      "established": 6169,
      "phenology": 6170,
      "accountable": 6171,
      "turnover": 6172,
      "entertained": 6173,
      "influences": 6174,
      "logo": 6175,
      "transferred": 6176,
      "mediating": 6177,
      "diagnosis": 6178,
      "targets": 6179,
      "dren": 6180,
      "glycogen": 6181,
      "animal": 6182,
      "physiology": 6183,
      "competition": 6184,
      "modifying": 6185,
      "overwhelming": 6186,
      "phenomenon": 6187,
      "casting": 6188,
      "equity": 6189,
      "equitable": 6190,
      "misuse": 6191,
      "alongside": 6192,
      "detectors": 6193,
      "ifies": 6194,
      "travels": 6195,
      "Physicists": 6196,
      "injured": 6197,
      "inspiring": 6198,
      "origins": 6199,
      "functionality": 6200,
      "consumers": 6201,
      "soft": 6202,
      "Antoine": 6203,
      "magnets": 6204,
      "assertively": 6205,
      "polarize": 6206,
      "Ecological": 6207,
      "filled": 6208,
      "filtering": 6209,
      "forecasts": 6210,
      "passes": 6211,
      "passwords": 6212,
      "philosop": 6213,
      "mysterious": 6214,
      "original": 6215,
      "introduces": 6216,
      "milli": 6217,
      "deflec": 6218,
      "infect": 6219,
      "rocks": 6220,
      "opinion": 6221,
      "calculations": 6222,
      "recipe": 6223,
      "journal": 6224,
      "governments": 6225,
      "homologous": 6226,
      "joining": 6227,
      "juggling": 6228,
      "replacing": 6229,
      "existing": 6230,
      "existence": 6231,
      "cytokines": 6232,
      "humidity": 6233,
      "189": 6234,
      "1859": 6235,
      "Transport": 6236,
      "client": 6237,
      "pursuing": 6238,
      "pursuit": 6239,
      "pursuits": 6240,
      "deploying": 6241,
      "Special": 6242,
      "invaders": 6243,
      "intensified": 6244,
      "intensity": 6245,
      "video": 6246,
      "divergent": 6247,
      "indicators": 6248,
      "translated": 6249,
      "coordinated": 6250,
      "Life": 6251,
      "votes": 6252,
      "thylakoid": 6253,
      "closely": 6254,
      "colorless": 6255,
      "regenerative": 6256,
      "receiving": 6257,
      "website": 6258,
      "craft": 6259,
      "mountains": 6260,
      "Protecting": 6261,
      "mixing": 6262,
      "belief": 6263,
      "replenished": 6264,
      "dreams": 6265,
      "massive": 6266,
      "matching": 6267,
      "sensations": 6268,
      "appropriate": 6269,
      "negotiation": 6270,
      "movie": 6271,
      "teacher": 6272,
      "Advancements": 6273,
      "candidate": 6274,
      "Connecting": 6275,
      "density": 6276,
      "erode": 6277,
      "leaves": 6278,
      "debates": 6279,
      "updated": 6280,
      "fueled": 6281,
      "electrophysiology": 6282,
      "destroying": 6283,
      "plumbing": 6284,
      "citizenship": 6285,
      "utilities": 6286,
      "...": 6287,
      "penicill": 6288,
      "paleontology": 6289,
      "paleoclimatology": 6290,
      "tropisms": 6291,
      "reminders": 6292,
      "parasites": 6293,
      "buyer": 6294,
      "buying": 6295,
      "batteries": 6296,
      "packaging": 6297,
      "inheritance": 6298,
      "artifacts": 6299,
      "exposing": 6300,
      "children": 6301,
      "grassroots": 6302,
      "advantages": 6303,
      "validate": 6304,
      "universes": 6305,
      "delocalized": 6306,
      "Chlorophyll": 6307,
      "rejuvenate": 6308,
      "Atoms": 6309,
      "Drones": 6310,
      "Ernest": 6311,
      "Electric": 6312,
      "Finally": 6313,
      "Human": 6314,
      "Hydrogen": 6315,
      "Maurice": 6316,
      "birth": 6317,
      "billion": 6318,
      "fingerprint": 6319,
      "utrients": 6320,
      "provenance": 6321,
      "resonate": 6322,
      "adversity": 6323,
      "indulging": 6324,
      "segreg": 6325,
      "expenditures": 6326,
      "1915": 6327,
      "companionship": 6328,
      "Likewise": 6329,
      "Oxidation": 6330,
      "contextually": 6331,
      "trailblazers": 6332,
      "CSS": 6333,
      "licensed": 6334,
      "nurturing": 6335,
      "podcasts": 6336,
      "install": 6337,
      "thrive": 6338,
      "orchestr": 6339,
      "amazing": 6340,
      "stratigraphy": 6341,
      "Internet": 6342,
      "premises": 6343,
      "interoperability": 6344,
      "grateful": 6345,
      "distinct": 6346,
      "Neuroscientists": 6347,
      "entrepreneurial": 6348,
      "Balancing": 6349,
      "EEG": 6350,
      "EVs": 6351,
      "Elements": 6352,
      "Effective": 6353,
      "Fermentation": 6354,
      "HTML": 6355,
      "Lewis": 6356,
      "Metallic": 6357,
      "Positive": 6358,
      "Please": 6359,
      "Personal": 6360,
      "Rutherford": 6361,
      "Together": 6362,
      "afraid": 6363,
      "aqueous": 6364,
      "countless": 6365,
      "fountains": 6366,
      "hustle": 6367,
      "kitchen": 6368,
      "mirr": 6369,
      "niches": 6370,
      "ronutrients": 6371,
      "square": 6372,
      "onboarding": 6373,
      "enthusiasts": 6374,
      "alleviate": 6375,
      "retrie": 6376,
      "asthenosphere": 6377,
      "outings": 6378,
      "restrictions": 6379,
      "unintended": 6380,
      "undifferentiated": 6381,
      "heavy": 6382,
      "ribonucleic": 6383,
      "appointments": 6384,
      "dipole": 6385,
      "external": 6386,
      "exhibitions": 6387,
      "excessive": 6388,
      "chambers": 6389,
      "spindle": 6390,
      "beautiful": 6391,
      "beauty": 6392,
      "commensalism": 6393,
      "disseminated": 6394,
      "mobilization": 6395,
      "intermediaries": 6396,
      "weakened": 6397,
      "fluctuations": 6398,
      "primarily": 6399,
      "syndrome": 6400,
      "hypotheses": 6401,
      "corruption": 6402,
      "camaraderie": 6403,
      "Transportation": 6404,
      "penicillin": 6405,
      "%.": 6406,
      "+)": 6407,
      "16": 6408,
      "23": 6409,
      "53": 6410,
      "Af": 6411,
      "Alex": 6412,
      "Bon": 6413,
      "Bene": 6414,
      "Bose": 6415,
      "Cell": 6416,
      "Chat": 6417,
      "Dou": 6418,
      "Econ": 6419,
      "Emer": 6420,
      "FS": 6421,
      "Fle": 6422,
      "Factors": 6423,
      "GI": 6424,
      "Gl": 6425,
      "Gener": 6426,
      "H3": 6427,
      "ID": 6428,
      "Iso": 6429,
      "Kr": 6430,
      "LH": 6431,
      "Lem": 6432,
      "Light": 6433,
      "Mo": 6434,
      "Mag": 6435,
      "Mars": 6436,
      "Nic": 6437,
      "Nanom": 6438,
      "NH3": 6439,
      "O3": 6440,
      "Ou": 6441,
      "Other": 6442,
      "Pi": 6443,
      "Pang": 6444,
      "PNS": 6445,
      "Rn": 6446,
      "Rib": 6447,
      "Sing": 6448,
      "Sto": 6449,
      "Sup": 6450,
      "TV": 6451,
      "Using": 6452,
      "Val": 6453,
      "Xe": 6454,
      "aw": 6455,
      "aî": 6456,
      "aments": 6457,
      "atively": 6458,
      "bers": 6459,
      "bab": 6460,
      "bust": 6461,
      "bersecurity": 6462,
      "baking": 6463,
      "bicy": 6464,
      "ck": 6465,
      "cum": 6466,
      "cord": 6467,
      "du": 6468,
      "dits": 6469,
      "dwell": 6470,
      "dinner": 6471,
      "dancing": 6472,
      "eze": 6473,
      "eight": 6474,
      "fat": 6475,
      "fas": 6476,
      "fab": 6477,
      "fish": 6478,
      "fats": 6479,
      "gon": 6480,
      "gments": 6481,
      "hes": 6482,
      "hang": 6483,
      "hone": 6484,
      "homes": 6485,
      "ij": 6486,
      "iers": 6487,
      "ional": 6488,
      "iled": 6489,
      "iuses": 6490,
      "kry": 6491,
      "kick": 6492,
      "lact": 6493,
      "last": 6494,
      "loy": 6495,
      "lactic": 6496,
      "lisions": 6497,
      "lush": 6498,
      "length": 6499,
      "mc": 6500,
      "mou": 6501,
      "mac": 6502,
      "mam": 6503,
      "mming": 6504,
      "nose": 6505,
      "next": 6506,
      "ode": 6507,
      "ove": 6508,
      "oys": 6509,
      "pon": 6510,
      "pit": 6511,
      "press": 6512,
      "ptional": 6513,
      "pens": 6514,
      "pitch": 6515,
      "rit": 6516,
      "sti": 6517,
      "sac": 6518,
      "she": 6519,
      "stic": 6520,
      "scre": 6521,
      "sulin": 6522,
      "tes": 6523,
      "tor": 6524,
      "tet": 6525,
      "tap": 6526,
      "tage": 6527,
      "uit": 6528,
      "uasive": 6529,
      "vary": 6530,
      "vection": 6531,
      "vature": 6532,
      "vail": 6533,
      "wi": 6534,
      "wer": 6535,
      "wing": 6536,
      "wings": 6537,
      "willing": 6538,
      "wiel": 6539,
      "wishes": 6540,
      "xen": 6541,
      "ym": 6542,
      "ygen": 6543,
      "ylation": 6544,
      "ynaptic": 6545,
      "inin": 6546,
      "intim": 6547,
      "inizing": 6548,
      "inactiv": 6549,
      "intrac": 6550,
      "income": 6551,
      "inorganic": 6552,
      "infinite": 6553,
      "incen": 6554,
      "inhalation": 6555,
      "anting": 6556,
      "anions": 6557,
      "tiality": 6558,
      "onch": 6559,
      "onance": 6560,
      "esome": 6561,
      "esteem": 6562,
      "enes": 6563,
      "enings": 6564,
      "thus": 6565,
      "thiness": 6566,
      "throp": 6567,
      "throw": 6568,
      "thode": 6569,
      "ander": 6570,
      "aler": 6571,
      "alph": 6572,
      "alization": 6573,
      "alkali": 6574,
      "rever": 6575,
      "reds": 6576,
      "remin": 6577,
      "retur": 6578,
      "represent": 6579,
      "reput": 6580,
      "recombination": 6581,
      "reacting": 6582,
      "reaching": 6583,
      "rearrangement": 6584,
      "reignite": 6585,
      "reconstruct": 6586,
      "rot": 6587,
      "rous": 6588,
      "attem": 6589,
      "stab": 6590,
      "stating": 6591,
      "stone": 6592,
      "stances": 6593,
      "stret": 6594,
      "topes": 6595,
      "togenes": 6596,
      "tokines": 6597,
      "tock": 6598,
      "ict": 6599,
      "icit": 6600,
      "icacy": 6601,
      "leaking": 6602,
      "lept": 6603,
      "asion": 6604,
      "outs": 6605,
      "arm": 6606,
      "arks": 6607,
      "arms": 6608,
      "artis": 6609,
      "aracts": 6610,
      "argon": 6611,
      "actual": 6612,
      "aciers": 6613,
      "probes": 6614,
      "itate": 6615,
      "itropism": 6616,
      "omists": 6617,
      "edback": 6618,
      "sify": 6619,
      "devi": 6620,
      "debr": 6621,
      "veget": 6622,
      "tress": 6623,
      "true": 6624,
      "trending": 6625,
      "trades": 6626,
      "truth": 6627,
      "viol": 6628,
      "resume": 6629,
      "ceive": 6630,
      "units": 6631,
      "unemployment": 6632,
      "youth": 6633,
      "plest": 6634,
      "above": 6635,
      "conclu": 6636,
      "convection": 6637,
      "hea": 6638,
      "heating": 6639,
      "heights": 6640,
      "rier": 6641,
      "ride": 6642,
      "ults": 6643,
      "ulele": 6644,
      "dimming": 6645,
      "essings": 6646,
      "essentials": 6647,
      "excell": 6648,
      "exhibit": 6649,
      "exhalation": 6650,
      "metric": 6651,
      "chr": 6652,
      "adding": 6653,
      "adren": 6654,
      "admini": 6655,
      "quir": 6656,
      "quite": 6657,
      "quarks": 6658,
      "atever": 6659,
      "osing": 6660,
      "suits": 6661,
      "sudden": 6662,
      "iris": 6663,
      "irations": 6664,
      "irable": 6665,
      "implant": 6666,
      "verages": 6667,
      "verification": 6668,
      "ogical": 6669,
      "ogens": 6670,
      "aming": 6671,
      "spare": 6672,
      "sphere": 6673,
      "spinal": 6674,
      "terrestrial": 6675,
      "hion": 6676,
      "histone": 6677,
      "ocity": 6678,
      "octet": 6679,
      "emporary": 6680,
      "emedicine": 6681,
      "beer": 6682,
      "tug": 6683,
      "persion": 6684,
      "percent": 6685,
      "perceive": 6686,
      "iday": 6687,
      "telemedicine": 6688,
      "tivation": 6689,
      "duction": 6690,
      "strative": 6691,
      "strict": 6692,
      "keys": 6693,
      "close": 6694,
      "why": 6695,
      "whatever": 6696,
      "worthiness": 6697,
      "Incre": 6698,
      "Insulin": 6699,
      "neon": 6700,
      "alsa": 6701,
      "entities": 6702,
      "note": 6703,
      "volta": 6704,
      "voltage": 6705,
      "ageous": 6706,
      "phone": 6707,
      "phases": 6708,
      "phones": 6709,
      "phishing": 6710,
      "vesting": 6711,
      "ortment": 6712,
      "dissol": 6713,
      "disast": 6714,
      "disput": 6715,
      "dispersion": 6716,
      "compris": 6717,
      "moon": 6718,
      "mobi": 6719,
      "seems": 6720,
      "alleles": 6721,
      "alloids": 6722,
      "fever": 6723,
      "feels": 6724,
      "fewer": 6725,
      "oversight": 6726,
      "energies": 6727,
      "hael": 6728,
      "workflows": 6729,
      "velocity": 6730,
      "clubs": 6731,
      "solace": 6732,
      "solvent": 6733,
      "prevail": 6734,
      "virus": 6735,
      "bling": 6736,
      "blend": 6737,
      "blast": 6738,
      "blessings": 6739,
      "obser": 6740,
      "obots": 6741,
      "fictional": 6742,
      "fermentation": 6743,
      "efficacy": 6744,
      "peace": 6745,
      "interv": 6746,
      "interphase": 6747,
      "interviews": 6748,
      "interdimensional": 6749,
      "interior": 6750,
      "interfaces": 6751,
      "prices": 6752,
      "prise": 6753,
      "someone": 6754,
      "something": 6755,
      "geoph": 6756,
      "geographic": 6757,
      "ysical": 6758,
      "meditate": 6759,
      "paved": 6760,
      "explicit": 6761,
      "transit": 6762,
      "weak": 6763,
      "collap": 6764,
      "collisions": 6765,
      "park": 6766,
      "contemporary": 6767,
      "spection": 6768,
      "sho": 6769,
      "shed": 6770,
      "shell": 6771,
      "shine": 6772,
      "recommended": 6773,
      "reless": 6774,
      "relatives": 6775,
      "persuasive": 6776,
      "acted": 6777,
      "aterials": 6778,
      "deserts": 6779,
      "assortment": 6780,
      "skelet": 6781,
      "bronch": 6782,
      "audits": 6783,
      "trip": 6784,
      "setup": 6785,
      "grand": 6786,
      "grace": 6787,
      "granting": 6788,
      "changed": 6789,
      "systematic": 6790,
      "breeze": 6791,
      "plane": 6792,
      "planner": 6793,
      "planners": 6794,
      "regain": 6795,
      "regional": 6796,
      "decond": 6797,
      "biof": 6798,
      "biosphere": 6799,
      "biotic": 6800,
      "oods": 6801,
      "basins": 6802,
      "guiding": 6803,
      "estate": 6804,
      "timing": 6805,
      "locate": 6806,
      "located": 6807,
      "flo": 6808,
      "leaders": 6809,
      "stands": 6810,
      "methylation": 6811,
      "drivers": 6812,
      "tualized": 6813,
      "mining": 6814,
      "chemically": 6815,
      "curves": 6816,
      "curvature": 6817,
      "immers": 6818,
      "immense": 6819,
      "veness": 6820,
      "fires": 6821,
      "fibers": 6822,
      "presynaptic": 6823,
      "icient": 6824,
      "icians": 6825,
      "oneer": 6826,
      "synthetic": 6827,
      "regulated": 6828,
      "potentials": 6829,
      "genres": 6830,
      "geniuses": 6831,
      "informational": 6832,
      "guides": 6833,
      "positivity": 6834,
      "positively": 6835,
      "identified": 6836,
      "epic": 6837,
      "builders": 6838,
      "encoding": 6839,
      "storing": 6840,
      "storms": 6841,
      "collaborating": 6842,
      "solutes": 6843,
      "lightning": 6844,
      "subset": 6845,
      "subduction": 6846,
      "coeffici": 6847,
      "student": 6848,
      "onomy": 6849,
      "improvements": 6850,
      "metalloids": 6851,
      "expan": 6852,
      "expense": 6853,
      "players": 6854,
      "paths": 6855,
      "allenges": 6856,
      "generates": 6857,
      "synthesizes": 6858,
      "Earthquakes": 6859,
      "tremend": 6860,
      "gradi": 6861,
      "limits": 6862,
      "balancing": 6863,
      "adapting": 6864,
      "holiday": 6865,
      "ceram": 6866,
      "ruins": 6867,
      "prints": 6868,
      "extent": 6869,
      "protects": 6870,
      "protective": 6871,
      "employs": 6872,
      "conflicting": 6873,
      "acidity": 6874,
      "consistency": 6875,
      "microscop": 6876,
      "exert": 6877,
      "centric": 6878,
      "supercontinent": 6879,
      "smallest": 6880,
      "drop": 6881,
      "site": 6882,
      "exercising": 6883,
      "copy": 6884,
      "neurop": 6885,
      "demographic": 6886,
      "minimum": 6887,
      "donates": 6888,
      "ricanes": 6889,
      "mechanical": 6890,
      "sequential": 6891,
      "concerts": 6892,
      "transported": 6893,
      "integrate": 6894,
      "ranges": 6895,
      "lowers": 6896,
      "thereby": 6897,
      "delight": 6898,
      "revolutionary": 6899,
      "combining": 6900,
      "neurulation": 6901,
      "responding": 6902,
      "conceptualized": 6903,
      "radial": 6904,
      "hydrosphere": 6905,
      "cathode": 6906,
      "depending": 6907,
      "love": 6908,
      "massage": 6909,
      "tricks": 6910,
      "gravitropism": 6911,
      "1928": 6912,
      "1953": 6913,
      "avoid": 6914,
      "determining": 6915,
      "sharpen": 6916,
      "cataracts": 6917,
      "follow": 6918,
      "transmitting": 6919,
      "private": 6920,
      "approachable": 6921,
      "sociologist": 6922,
      "suggested": 6923,
      "equivalence": 6924,
      "inflation": 6925,
      "connectivity": 6926,
      "attentively": 6927,
      "activate": 6928,
      "simplest": 6929,
      "trachea": 6930,
      "cryptocurrency": 6931,
      "catalyzes": 6932,
      "give": 6933,
      "describing": 6934,
      "scientist": 6935,
      "mutualism": 6936,
      "Expressing": 6937,
      "replicates": 6938,
      "periods": 6939,
      "investigating": 6940,
      "topography": 6941,
      "proposing": 6942,
      "turned": 6943,
      "Prokaryotic": 6944,
      "pton": 6945,
      "excels": 6946,
      "struggling": 6947,
      "separating": 6948,
      "temperatures": 6949,
      "broaden": 6950,
      "frag": 6951,
      "halogens": 6952,
      "putting": 6953,
      "measuring": 6954,
      "logs": 6955,
      "logical": 6956,
      "nonmetals": 6957,
      "nonverbal": 6958,
      "transcriptional": 6959,
      "reflecting": 6960,
      "damaging": 6961,
      "diagnostics": 6962,
      "Combustion": 6963,
      "modification": 6964,
      "functioning": 6965,
      "equation": 6966,
      "farmers": 6967,
      "miss": 6968,
      "smartphones": 6969,
      "component": 6970,
      "destiny": 6971,
      "Plan": 6972,
      "barrier": 6973,
      "happenings": 6974,
      "studi": 6975,
      "stuff": 6976,
      "formulating": 6977,
      "linked": 6978,
      "antibiotic": 6979,
      "anomaly": 6980,
      "seriously": 6981,
      "nervousness": 6982,
      "instead": 6983,
      "attach": 6984,
      "ribos": 6985,
      "architec": 6986,
      "demonstrated": 6987,
      "Anthrop": 6988,
      "psychological": 6989,
      "aspirations": 6990,
      "headset": 6991,
      "authority": 6992,
      "Spectroscopy": 6993,
      "aea": 6994,
      "forecasting": 6995,
      "channel": 6996,
      "answers": 6997,
      "passing": 6998,
      "passed": 6999,
      "Activation": 7000,
      "Geothermal": 7001,
      "Geograph": 7002,
      "cuts": 7003,
      "aligned": 7004,
      "alignment": 7005,
      "defend": 7006,
      "defends": 7007,
      "decompress": 7008,
      "current": 7009,
      "currencies": 7010,
      "fixed": 7011,
      "scanning": 7012,
      "infection": 7013,
      "propag": 7014,
      "committed": 7015,
      "seafloor": 7016,
      "survey": 7017,
      "collect": 7018,
      "collection": 7019,
      "collective": 7020,
      "collecting": 7021,
      "collected": 7022,
      "superheroes": 7023,
      "Reinforcement": 7024,
      "equalize": 7025,
      "alien": 7026,
      "extract": 7027,
      "credit": 7028,
      "transformational": 7029,
      "asteroid": 7030,
      "fantastical": 7031,
      "circu": 7032,
      "circum": 7033,
      "domain": 7034,
      "homogeneous": 7035,
      "hominin": 7036,
      "joined": 7037,
      "incident": 7038,
      "choose": 7039,
      "choosing": 7040,
      "colony": 7041,
      "audio": 7042,
      "audiobo": 7043,
      "treasure": 7044,
      "Negative": 7045,
      "Transition": 7046,
      "climb": 7047,
      "easily": 7048,
      "weekend": 7049,
      "preserve": 7050,
      "adventures": 7051,
      "Resonance": 7052,
      "papers": 7053,
      "intentions": 7054,
      "translating": 7055,
      "gamete": 7056,
      "gametogenes": 7057,
      "Challenges": 7058,
      "Key": 7059,
      "gathering": 7060,
      "lunches": 7061,
      "templates": 7062,
      "classify": 7063,
      "closet": 7064,
      "possibility": 7065,
      "counteract": 7066,
      "received": 7067,
      "vulnerability": 7068,
      "seismicity": 7069,
      "nanotechnology": 7070,
      "nanoparticles": 7071,
      "sales": 7072,
      "utilizes": 7073,
      "utilization": 7074,
      "styles": 7075,
      "liquids": 7076,
      "literature": 7077,
      "bedtime": 7078,
      "induce": 7079,
      "induction": 7080,
      "induced": 7081,
      "iteration": 7082,
      "iterative": 7083,
      "explosions": 7084,
      "captured": 7085,
      "nucleotide": 7086,
      "Oxygen": 7087,
      "pull": 7088,
      "rental": 7089,
      "debate": 7090,
      "discriminatory": 7091,
      "acknowledge": 7092,
      "skateboarding": 7093,
      "oxidizes": 7094,
      "electroly": 7095,
      "circulation": 7096,
      "execute": 7097,
      "counterfeit": 7098,
      "utilize": 7099,
      "Cooking": 7100,
      "Potential": 7101,
      "When": 7102,
      "Whys": 7103,
      "melt": 7104,
      "tropism": 7105,
      "acetylation": 7106,
      "fortun": 7107,
      "parasitism": 7108,
      "bridges": 7109,
      "footprint": 7110,
      "Feedback": 7111,
      "Solar": 7112,
      "Solids": 7113,
      "battery": 7114,
      "cube": 7115,
      "pushed": 7116,
      "voir": 7117,
      "retailers": 7118,
      "livestock": 7119,
      "child": 7120,
      "echoes": 7121,
      "photovolta": 7122,
      "phototropism": 7123,
      "grasslands": 7124,
      "fluid": 7125,
      "advantageous": 7126,
      "limitless": 7127,
      "universal": 7128,
      "delocalization": 7129,
      "brightness": 7130,
      "Chloroplasts": 7131,
      "Cybersecurity": 7132,
      "Cytokines": 7133,
      "Epigenetic": 7134,
      "Epigenetics": 7135,
      "sweet": 7136,
      "sweeps": 7137,
      "texts": 7138,
      "tolerance": 7139,
      "extending": 7140,
      "memories": 7141,
      "occup": 7142,
      "observational": 7143,
      "wearing": 7144,
      "encounter": 7145,
      "encountering": 7146,
      "responsiveness": 7147,
      "archaea": 7148,
      "archaeology": 7149,
      "grievance": 7150,
      "grievances": 7151,
      "100": 7152,
      "Digital": 7153,
      "Michael": 7154,
      "hurricanes": 7155,
      "magnifies": 7156,
      "radon": 7157,
      "ukulele": 7158,
      "wild": 7159,
      "enchant": 7160,
      "revealing": 7161,
      "removed": 7162,
      "requests": 7163,
      "comparative": 7164,
      "prepared": 7165,
      "branches": 7166,
      "capacity": 7167,
      "advisable": 7168,
      "refreshed": 7169,
      "depths": 7170,
      "available": 7171,
      "brilliance": 7172,
      "counseling": 7173,
      "follicle": 7174,
      "horizons": 7175,
      "Georges": 7176,
      "luteinizing": 7177,
      "rehearsing": 7178,
      "Chemists": 7179,
      "Mutations": 7180,
      "Recent": 7181,
      "Redox": 7182,
      "ethics": 7183,
      "judgment": 7184,
      "kidneys": 7185,
      "nastic": 7186,
      "vocal": 7187,
      "vacuum": 7188,
      "wisely": 7189,
      "witness": 7190,
      "insertion": 7191,
      "arranged": 7192,
      "proficient": 7193,
      "deoxyribonucleic": 7194,
      "reservoir": 7195,
      "eternal": 7196,
      "condensate": 7197,
      "sufficient": 7198,
      "impartiality": 7199,
      "sprawl": 7200,
      "indispens": 7201,
      "volunteering": 7202,
      "decrease": 7203,
      "globe": 7204,
      "harmony": 7205,
      "distinguishes": 7206,
      "treehouse": 7207,
      "extinctions": 7208,
      "English": 7209,
      "manufacturers": 7210,
      "Exploring": 7211,
      "philosopher": 7212,
      "millions": 7213,
      "deflected": 7214,
      "infected": 7215,
      "retrieval": 7216,
      "After": 7217,
      "Alexander": 7218,
      "Beneficial": 7219,
      "Chatbots": 7220,
      "Double": 7221,
      "Economists": 7222,
      "Emerging": 7223,
      "FSH": 7224,
      "Fleming": 7225,
      "GIS": 7226,
      "Isotopes": 7227,
      "Lemaî": 7228,
      "Nicol": 7229,
      "Nanomaterials": 7230,
      "Ouij": 7231,
      "Pioneer": 7232,
      "Pangaea": 7233,
      "Ribosomes": 7234,
      "Single": 7235,
      "Supporting": 7236,
      "Valence": 7237,
      "awesome": 7238,
      "bicycle": 7239,
      "duplic": 7240,
      "dwelling": 7241,
      "fatty": 7242,
      "fashion": 7243,
      "krypton": 7244,
      "kickstart": 7245,
      "lactation": 7246,
      "lasting": 7247,
      "loyal": 7248,
      "mouth": 7249,
      "pituit": 7250,
      "sticky": 7251,
      "screen": 7252,
      "willingness": 7253,
      "wield": 7254,
      "xenon": 7255,
      "inactivated": 7256,
      "intracellular": 7257,
      "incentives": 7258,
      "alpha": 7259,
      "reversible": 7260,
      "redshift": 7261,
      "reminding": 7262,
      "returns": 7263,
      "reputable": 7264,
      "stabili": 7265,
      "stretching": 7266,
      "leptons": 7267,
      "artistic": 7268,
      "deviations": 7269,
      "debris": 7270,
      "excellence": 7271,
      "adrenal": 7272,
      "administrative": 7273,
      "implantation": 7274,
      "dissolved": 7275,
      "disasters": 7276,
      "disputes": 7277,
      "comprises": 7278,
      "mobile": 7279,
      "observer": 7280,
      "geophysical": 7281,
      "collapse": 7282,
      "bronchi": 7283,
      "decondense": 7284,
      "coefficients": 7285,
      "tremendous": 7286,
      "microscopic": 7287,
      "neuropsych": 7288,
      "Anthropologists": 7289,
      "Geographers": 7290,
      "circuits": 7291,
      "circumstances": 7292,
      "audiobooks": 7293,
      "gametogenesis": 7294,
      "indispensable": 7295,
      "Lemaître": 7296,
      "Ouija": 7297,
      "pituitary": 7298,
      "!'": 7299,
      "12": 7300,
      "87": 7301,
      "Aust": 7302,
      "Ask": 7303,
      "Aster": 7304,
      "ADP": 7305,
      "BF": 7306,
      "Be": 7307,
      "Bl": 7308,
      "Bond": 7309,
      "Black": 7310,
      "C6": 7311,
      "CH": 7312,
      "CT": 7313,
      "Cop": 7314,
      "Cells": 7315,
      "CNNs": 7316,
      "DI": 7317,
      "Du": 7318,
      "Des": 7319,
      "Dal": 7320,
      "Dop": 7321,
      "Dev": 7322,
      "Ed": 7323,
      "Eu": 7324,
      "Est": 7325,
      "Ech": 7326,
      "Educ": 7327,
      "Eating": 7328,
      "Equi": 7329,
      "EHR": 7330,
      "Easter": 7331,
      "Fra": 7332,
      "Fren": 7333,
      "Gal": 7334,
      "Gro": 7335,
      "Gam": 7336,
      "Gastr": 7337,
      "Gib": 7338,
      "German": 7339,
      "Genes": 7340,
      "Hen": 7341,
      "Hel": 7342,
      "Hol": 7343,
      "Herman": 7344,
      "IP": 7345,
      "Its": 7346,
      "INs": 7347,
      "Jo": 7348,
      "Jan": 7349,
      "Jup": 7350,
      "KD": 7351,
      "Kar": 7352,
      "Lé": 7353,
      "Lys": 7354,
      "Lond": 7355,
      "MO": 7356,
      "Ni": 7357,
      "Non": 7358,
      "Navi": 7359,
      "Nutri": 7360,
      "Or": 7361,
      "Ops": 7362,
      "Pu": 7363,
      "Par": 7364,
      "Pale": 7365,
      "PINs": 7366,
      "Qual": 7367,
      "QKD": 7368,
      "Rech": 7369,
      "Rob": 7370,
      "Rising": 7371,
      "RNNs": 7372,
      "Stri": 7373,
      "Shor": 7374,
      "Sadi": 7375,
      "Stress": 7376,
      "Schr": 7377,
      "Tides": 7378,
      "Teles": 7379,
      "Vari": 7380,
      "Wind": 7381,
      "Willi": 7382,
      "Yea": 7383,
      "ake": 7384,
      "adig": 7385,
      "aids": 7386,
      "aiding": 7387,
      "aware": 7388,
      "averages": 7389,
      "ben": 7390,
      "bor": 7391,
      "bent": 7392,
      "bble": 7393,
      "biting": 7394,
      "bending": 7395,
      "border": 7396,
      "cin": 7397,
      "ced": 7398,
      "cof": 7399,
      "cod": 7400,
      "cater": 7401,
      "cau": 7402,
      "clim": 7403,
      "cue": 7404,
      "coded": 7405,
      "crow": 7406,
      "calls": 7407,
      "dul": 7408,
      "date": 7409,
      "derm": 7410,
      "dfunding": 7411,
      "dotes": 7412,
      "dboard": 7413,
      "ey": 7414,
      "eor": 7415,
      "eat": 7416,
      "etic": 7417,
      "ethan": 7418,
      "evalu": 7419,
      "etry": 7420,
      "fre": 7421,
      "fro": 7422,
      "fir": 7423,
      "fies": 7424,
      "fals": 7425,
      "fting": 7426,
      "fect": 7427,
      "fits": 7428,
      "filling": 7429,
      "gour": 7430,
      "gning": 7431,
      "gents": 7432,
      "genh": 7433,
      "gym": 7434,
      "hn": 7435,
      "hr": 7436,
      "hen": 7437,
      "hec": 7438,
      "hit": 7439,
      "het": 7440,
      "hop": 7441,
      "hos": 7442,
      "hill": 7443,
      "hack": 7444,
      "handling": 7445,
      "hitting": 7446,
      "iation": 7447,
      "iph": 7448,
      "igr": 7449,
      "ium": 7450,
      "ived": 7451,
      "ified": 7452,
      "iece": 7453,
      "jog": 7454,
      "ject": 7455,
      "jacking": 7456,
      "kal": 7457,
      "kil": 7458,
      "killed": 7459,
      "lase": 7460,
      "lens": 7461,
      "lices": 7462,
      "lacks": 7463,
      "lenses": 7464,
      "mat": 7465,
      "mit": 7466,
      "mith": 7467,
      "mid": 7468,
      "mals": 7469,
      "muse": 7470,
      "mhol": 7471,
      "mold": 7472,
      "nov": 7473,
      "nae": 7474,
      "py": 7475,
      "pti": 7476,
      "pas": 7477,
      "piz": 7478,
      "pia": 7479,
      "pite": 7480,
      "pets": 7481,
      "pped": 7482,
      "praise": 7483,
      "rand": 7484,
      "rul": 7485,
      "rend": 7486,
      "raction": 7487,
      "rink": 7488,
      "sin": 7489,
      "sth": 7490,
      "som": 7491,
      "sine": 7492,
      "slip": 7493,
      "sali": 7494,
      "senses": 7495,
      "shift": 7496,
      "salsa": 7497,
      "slices": 7498,
      "tz": 7499,
      "tro": 7500,
      "tell": 7501,
      "tory": 7502,
      "test": 7503,
      "tency": 7504,
      "tests": 7505,
      "tapping": 7506,
      "uate": 7507,
      "uels": 7508,
      "usive": 7509,
      "urous": 7510,
      "von": 7511,
      "vors": 7512,
      "went": 7513,
      "wall": 7514,
      "wering": 7515,
      "wins": 7516,
      "wrang": 7517,
      "xter": 7518,
      "ylem": 7519,
      "ylase": 7520,
      "za": 7521,
      "zz": 7522,
      "zen": 7523,
      "zene": 7524,
      "zones": 7525,
      "öding": 7526,
      "indi": 7527,
      "inos": 7528,
      "inhi": 7529,
      "inci": 7530,
      "invent": 7531,
      "independ": 7532,
      "invaluable": 7533,
      "inade": 7534,
      "incoming": 7535,
      "inquir": 7536,
      "inspection": 7537,
      "anec": 7538,
      "anations": 7539,
      "anine": 7540,
      "anium": 7541,
      "tists": 7542,
      "title": 7543,
      "ony": 7544,
      "onti": 7545,
      "onoun": 7546,
      "onard": 7547,
      "estu": 7548,
      "erb": 7549,
      "eral": 7550,
      "erel": 7551,
      "ertiliz": 7552,
      "erogeneous": 7553,
      "inge": 7554,
      "ende": 7555,
      "enrich": 7556,
      "ensors": 7557,
      "thir": 7558,
      "thunder": 7559,
      "thick": 7560,
      "thropy": 7561,
      "orn": 7562,
      "orus": 7563,
      "orting": 7564,
      "orman": 7565,
      "ords": 7566,
      "alkal": 7567,
      "repor": 7568,
      "revis": 7569,
      "reframe": 7570,
      "removing": 7571,
      "repul": 7572,
      "returning": 7573,
      "readi": 7574,
      "retire": 7575,
      "rewrite": 7576,
      "remediation": 7577,
      "rehen": 7578,
      "roof": 7579,
      "rover": 7580,
      "ropol": 7581,
      "roorganisms": 7582,
      "atar": 7583,
      "atulations": 7584,
      "stol": 7585,
      "stock": 7586,
      "elors": 7587,
      "elets": 7588,
      "elusive": 7589,
      "token": 7590,
      "toderm": 7591,
      "towering": 7592,
      "thed": 7593,
      "ichi": 7594,
      "leas": 7595,
      "left": 7596,
      "leuk": 7597,
      "assi": 7598,
      "asons": 7599,
      "ardi": 7600,
      "arts": 7601,
      "arly": 7602,
      "arance": 7603,
      "arise": 7604,
      "arging": 7605,
      "arkers": 7606,
      "accomm": 7607,
      "acerb": 7608,
      "ectively": 7609,
      "ectoderm": 7610,
      "isn": 7611,
      "ised": 7612,
      "progn": 7613,
      "protists": 7614,
      "itating": 7615,
      "itors": 7616,
      "itten": 7617,
      "ittle": 7618,
      "omson": 7619,
      "entless": 7620,
      "edi": 7621,
      "ols": 7622,
      "oline": 7623,
      "olarly": 7624,
      "uck": 7625,
      "sial": 7626,
      "siren": 7627,
      "lie": 7628,
      "liver": 7629,
      "liant": 7630,
      "lift": 7631,
      "deta": 7632,
      "degre": 7633,
      "dexter": 7634,
      "forget": 7635,
      "fortable": 7636,
      "forgot": 7637,
      "forgetting": 7638,
      "canthropy": 7639,
      "vey": 7640,
      "trap": 7641,
      "tronegativity": 7642,
      "vibr": 7643,
      "vill": 7644,
      "resta": 7645,
      "resorts": 7646,
      "rescue": 7647,
      "mented": 7648,
      "mentals": 7649,
      "mentoring": 7650,
      "eted": 7651,
      "etaphase": 7652,
      "unfair": 7653,
      "unstructured": 7654,
      "until": 7655,
      "unfortun": 7656,
      "unleas": 7657,
      "pline": 7658,
      "urt": 7659,
      "urine": 7660,
      "urning": 7661,
      "urants": 7662,
      "urring": 7663,
      "uranium": 7664,
      "ables": 7665,
      "abuse": 7666,
      "conting": 7667,
      "convolution": 7668,
      "condense": 7669,
      "conserving": 7670,
      "rian": 7671,
      "rights": 7672,
      "rigation": 7673,
      "apple": 7674,
      "apart": 7675,
      "applying": 7676,
      "ago": 7677,
      "agro": 7678,
      "agulation": 7679,
      "agram": 7680,
      "agocy": 7681,
      "usage": 7682,
      "ula": 7683,
      "coma": 7684,
      "commemor": 7685,
      "comfortable": 7686,
      "distress": 7687,
      "dization": 7688,
      "diphosphate": 7689,
      "diagram": 7690,
      "ophi": 7691,
      "ays": 7692,
      "essay": 7693,
      "ute": 7694,
      "utter": 7695,
      "utants": 7696,
      "exchanging": 7697,
      "exceed": 7698,
      "extracting": 7699,
      "exacerb": 7700,
      "otro": 7701,
      "chess": 7702,
      "changer": 7703,
      "chances": 7704,
      "chats": 7705,
      "ader": 7706,
      "adises": 7707,
      "quacy": 7708,
      "quanti": 7709,
      "quotes": 7710,
      "querel": 7711,
      "osmo": 7712,
      "tica": 7713,
      "iration": 7714,
      "irling": 7715,
      "ircut": 7716,
      "irrigation": 7717,
      "versions": 7718,
      "izations": 7719,
      "amput": 7720,
      "amylase": 7721,
      "spid": 7722,
      "sports": 7723,
      "spectroscopy": 7724,
      "sprink": 7725,
      "terra": 7726,
      "hijacking": 7727,
      "lycanthropy": 7728,
      "empower": 7729,
      "empowered": 7730,
      "email": 7731,
      "ematic": 7732,
      "gher": 7733,
      "beach": 7734,
      "odations": 7735,
      "ometry": 7736,
      "ometrics": 7737,
      "pery": 7738,
      "perpet": 7739,
      "perfect": 7740,
      "idating": 7741,
      "helpline": 7742,
      "angles": 7743,
      "Investing": 7744,
      "Ingenh": 7745,
      "Innov": 7746,
      "neigh": 7747,
      "nebul": 7748,
      "endanger": 7749,
      "endoderm": 7750,
      "cretion": 7751,
      "ousz": 7752,
      "phlo": 7753,
      "phony": 7754,
      "pheral": 7755,
      "phagocy": 7756,
      "vesdrop": 7757,
      "displays": 7758,
      "disconnect": 7759,
      "disconnecting": 7760,
      "compact": 7761,
      "compaction": 7762,
      "compacts": 7763,
      "company": 7764,
      "compati": 7765,
      "complete": 7766,
      "comprehen": 7767,
      "moves": 7768,
      "moist": 7769,
      "seasons": 7770,
      "allotro": 7771,
      "nings": 7772,
      "overca": 7773,
      "energizes": 7774,
      "energetic": 7775,
      "haven": 7776,
      "haircut": 7777,
      "workout": 7778,
      "workflow": 7779,
      "velength": 7780,
      "included": 7781,
      "prevents": 7782,
      "portfol": 7783,
      "processed": 7784,
      "maest": 7785,
      "matically": 7786,
      "involving": 7787,
      "blic": 7788,
      "black": 7789,
      "blending": 7790,
      "blaming": 7791,
      "blurring": 7792,
      "obtain": 7793,
      "cience": 7794,
      "cister": 7795,
      "outlines": 7796,
      "outlin": 7797,
      "outfits": 7798,
      "peers": 7799,
      "interpersonal": 7800,
      "interesting": 7801,
      "interpret": 7802,
      "intermit": 7803,
      "mbiotic": 7804,
      "pronoun": 7805,
      "ounting": 7806,
      "sometimes": 7807,
      "gear": 7808,
      "geology": 7809,
      "explanations": 7810,
      "transforms": 7811,
      "developers": 7812,
      "colors": 7813,
      "paradig": 7814,
      "paradises": 7815,
      "contempl": 7816,
      "contacts": 7817,
      "contacting": 7818,
      "controver": 7819,
      "fuller": 7820,
      "respectively": 7821,
      "speciation": 7822,
      "shiny": 7823,
      "recommending": 7824,
      "bleeding": 7825,
      "relatively": 7826,
      "relentless": 7827,
      "versely": 7828,
      "undergoing": 7829,
      "underground": 7830,
      "underlie": 7831,
      "desirable": 7832,
      "experiencing": 7833,
      "structuring": 7834,
      "skilled": 7835,
      "electrician": 7836,
      "electronegativity": 7837,
      "communicators": 7838,
      "brin": 7839,
      "brittle": 7840,
      "augmented": 7841,
      "trials": 7842,
      "grant": 7843,
      "graph": 7844,
      "graphic": 7845,
      "gratulations": 7846,
      "variable": 7847,
      "nesses": 7848,
      "planes": 7849,
      "ovaries": 7850,
      "regim": 7851,
      "decay": 7852,
      "decoration": 7853,
      "decades": 7854,
      "deciph": 7855,
      "bigg": 7856,
      "bone": 7857,
      "basis": 7858,
      "guanine": 7859,
      "poor": 7860,
      "poetry": 7861,
      "plicity": 7862,
      "lingu": 7863,
      "timings": 7864,
      "lock": 7865,
      "locations": 7866,
      "realms": 7867,
      "flatten": 7868,
      "flapping": 7869,
      "floods": 7870,
      "caregi": 7871,
      "prometaphase": 7872,
      "analytical": 7873,
      "aste": 7874,
      "astro": 7875,
      "astmast": 7876,
      "leads": 7877,
      "humor": 7878,
      "traject": 7879,
      "backend": 7880,
      "grows": 7881,
      "transporting": 7882,
      "transpiration": 7883,
      "warp": 7884,
      "wardro": 7885,
      "warnings": 7886,
      "fired": 7887,
      "fibrin": 7888,
      "differs": 7889,
      "diffraction": 7890,
      "personalize": 7891,
      "cription": 7892,
      "knitting": 7893,
      "genre": 7894,
      "genies": 7895,
      "saw": 7896,
      "earn": 7897,
      "wherever": 7898,
      "positives": 7899,
      "cardboard": 7900,
      "center": 7901,
      "centers": 7902,
      "centered": 7903,
      "identification": 7904,
      "calming": 7905,
      "epiece": 7906,
      "buildup": 7907,
      "hybrid": 7908,
      "stressing": 7909,
      "stressful": 7910,
      "lighten": 7911,
      "submer": 7912,
      "subtracting": 7913,
      "feeds": 7914,
      "feeding": 7915,
      "cohes": 7916,
      "coagulation": 7917,
      "insight": 7918,
      "algorithm": 7919,
      "Through": 7920,
      "Those": 7921,
      "Thomson": 7922,
      "meteor": 7923,
      "metropol": 7924,
      "player": 7925,
      "pathways": 7926,
      "glowing": 7927,
      "glasses": 7928,
      "axons": 7929,
      "downhill": 7930,
      "harmed": 7931,
      "surger": 7932,
      "osynthesis": 7933,
      "impose": 7934,
      "impacting": 7935,
      "mentally": 7936,
      "anck": 7937,
      "automatically": 7938,
      "modes": 7939,
      "distances": 7940,
      "treats": 7941,
      "optimistic": 7942,
      "optimizations": 7943,
      "preferred": 7944,
      "limiting": 7945,
      "complexity": 7946,
      "sustaining": 7947,
      "ularity": 7948,
      "pores": 7949,
      "environmentally": 7950,
      "holes": 7951,
      "buildings": 7952,
      "factoring": 7953,
      "projection": 7954,
      "successfully": 7955,
      "doors": 7956,
      "extended": 7957,
      "recognized": 7958,
      "refine": 7959,
      "arted": 7960,
      "cracks": 7961,
      "moral": 7962,
      "acidic": 7963,
      "consistent": 7964,
      "faults": 7965,
      "micronutrients": 7966,
      "spiral": 7967,
      "exerts": 7968,
      "evacu": 7969,
      "facilities": 7970,
      "superintelligent": 7971,
      "makeover": 7972,
      "makeup": 7973,
      "educator": 7974,
      "properly": 7975,
      "proteases": 7976,
      "qualified": 7977,
      "tisements": 7978,
      "keyboard": 7979,
      "neuros": 7980,
      "neurol": 7981,
      "relaxed": 7982,
      "soothing": 7983,
      "demograph": 7984,
      "lawn": 7985,
      "tailpi": 7986,
      "ricating": 7987,
      "economist": 7988,
      "uniform": 7989,
      "unifying": 7990,
      "nerves": 7991,
      "platelet": 7992,
      "platelets": 7993,
      "concern": 7994,
      "think": 7995,
      "motivate": 7996,
      "motivating": 7997,
      "grammar": 7998,
      "piece": 7999,
      "pigments": 8000,
      "zygot": 8001,
      "deleted": 8002,
      "delays": 8003,
      "revolutionizes": 8004,
      "combinations": 8005,
      "Higher": 8006,
      "layering": 8007,
      "lesser": 8008,
      "waking": 8009,
      "wavelength": 8010,
      "accessed": 8011,
      "radiant": 8012,
      "radiologists": 8013,
      "hydrological": 8014,
      "mesh": 8015,
      "mesoderm": 8016,
      "bitter": 8017,
      "massages": 8018,
      "clearly": 8019,
      "inters": 8020,
      "Gravity": 8021,
      "cryosphere": 8022,
      "crypti": 8023,
      "venting": 8024,
      "confidently": 8025,
      "transformative": 8026,
      "puzz": 8027,
      "diseased": 8028,
      "avor": 8029,
      "tales": 8030,
      "Weather": 8031,
      "Week": 8032,
      "correlated": 8033,
      "enjoyable": 8034,
      "rounds": 8035,
      "vehicle": 8036,
      "respectfully": 8037,
      "sharp": 8038,
      "Dealing": 8039,
      "Deforestation": 8040,
      "handled": 8041,
      "handwr": 8042,
      "singularity": 8043,
      "autonomy": 8044,
      "folders": 8045,
      "messaging": 8046,
      "scholarly": 8047,
      "static": 8048,
      "viewpoints": 8049,
      "wrong": 8050,
      "wrench": 8051,
      "reward": 8052,
      "principle": 8053,
      "ptoms": 8054,
      "conductors": 8055,
      "valuing": 8056,
      "hobby": 8057,
      "charity": 8058,
      "charging": 8059,
      "temporary": 8060,
      "simplicity": 8061,
      "container": 8062,
      "secreting": 8063,
      "cryptocurrencies": 8064,
      "catalyze": 8065,
      "bursts": 8066,
      "emerge": 8067,
      "phosphorus": 8068,
      "presenting": 8069,
      "presented": 8070,
      "presentations": 8071,
      "necessitating": 8072,
      "therapists": 8073,
      "bacterial": 8074,
      "replicating": 8075,
      "connects": 8076,
      "directed": 8077,
      "peripheral": 8078,
      "medication": 8079,
      "organizes": 8080,
      "establishment": 8081,
      "affection": 8082,
      "motors": 8083,
      "paint": 8084,
      "painters": 8085,
      "Procra": 8086,
      "disruption": 8087,
      "separated": 8088,
      "disciplines": 8089,
      "broader": 8090,
      "fraction": 8091,
      "fronti": 8092,
      "selecting": 8093,
      "selectively": 8094,
      "histories": 8095,
      "logic": 8096,
      "nothing": 8097,
      "notifications": 8098,
      "trackers": 8099,
      "reflects": 8100,
      "reflected": 8101,
      "Under": 8102,
      "airways": 8103,
      "aircraft": 8104,
      "airplane": 8105,
      "bridization": 8106,
      "dams": 8107,
      "mediated": 8108,
      "mediates": 8109,
      "pollutants": 8110,
      "diagnosing": 8111,
      "targeting": 8112,
      "Comets": 8113,
      "gasoline": 8114,
      "reactors": 8115,
      "articulate": 8116,
      "modify": 8117,
      "modifies": 8118,
      "stimulates": 8119,
      "evening": 8120,
      "farms": 8121,
      "hole": 8122,
      "destinations": 8123,
      "Al3": 8124,
      "Alkali": 8125,
      "Planck": 8126,
      "belt": 8127,
      "below": 8128,
      "happening": 8129,
      "tutoring": 8130,
      "statements": 8131,
      "conversation": 8132,
      "traveling": 8133,
      "addressed": 8134,
      "deletion": 8135,
      "delegate": 8136,
      "delegation": 8137,
      "gains": 8138,
      "liters": 8139,
      "yogurt": 8140,
      "antibody": 8141,
      "rechargeable": 8142,
      "adjustments": 8143,
      "functionalities": 8144,
      "attaches": 8145,
      "restful": 8146,
      "restoration": 8147,
      "expressions": 8148,
      "commonly": 8149,
      "shoppers": 8150,
      "criticizing": 8151,
      "framework": 8152,
      "grouped": 8153,
      "loses": 8154,
      "losses": 8155,
      "magician": 8156,
      "aspect": 8157,
      "mostly": 8158,
      "authorities": 8159,
      "biomarkers": 8160,
      "acceleration": 8161,
      "accelerating": 8162,
      "filtration": 8163,
      "filaments": 8164,
      "visibly": 8165,
      "wizards": 8166,
      "roadways": 8167,
      "roadside": 8168,
      "assembling": 8169,
      "flowers": 8170,
      "oceanography": 8171,
      "documentation": 8172,
      "passage": 8173,
      "passages": 8174,
      "attract": 8175,
      "attractive": 8176,
      "cycles": 8177,
      "fertilizes": 8178,
      "disturbed": 8179,
      "disturbance": 8180,
      "fundamentals": 8181,
      "introductory": 8182,
      "Becquerel": 8183,
      "crossing": 8184,
      "grids": 8185,
      "milder": 8186,
      "thematica": 8187,
      "currently": 8188,
      "supervisor": 8189,
      "supervised": 8190,
      "afterlife": 8191,
      "latency": 8192,
      "walks": 8193,
      "calculation": 8194,
      "collectors": 8195,
      "equalizing": 8196,
      "kinds": 8197,
      "prototypes": 8198,
      "adenine": 8199,
      "immutability": 8200,
      "burned": 8201,
      "landscapes": 8202,
      "governed": 8203,
      "jokes": 8204,
      "juices": 8205,
      "tablets": 8206,
      "exists": 8207,
      "preceding": 8208,
      "cytoskelet": 8209,
      "cytosine": 8210,
      "colonies": 8211,
      "association": 8212,
      "audiences": 8213,
      "considered": 8214,
      "Neural": 8215,
      "Princi": 8216,
      "riches": 8217,
      "repetitive": 8218,
      "manipulation": 8219,
      "shortages": 8220,
      "preserving": 8221,
      "savings": 8222,
      "adventurous": 8223,
      "pursued": 8224,
      "threaten": 8225,
      "scenario": 8226,
      "configurations": 8227,
      "Respon": 8228,
      "Showing": 8229,
      "derived": 8230,
      "okay": 8231,
      "invoking": 8232,
      "intense": 8233,
      "robot": 8234,
      "robbing": 8235,
      "starting": 8236,
      "diversified": 8237,
      "indicator": 8238,
      "masterpiece": 8239,
      "calmly": 8240,
      "expanded": 8241,
      "protected": 8242,
      "coordinates": 8243,
      "lifespan": 8244,
      "Mito": 8245,
      "MRIs": 8246,
      "Toastmast": 8247,
      "freezing": 8248,
      "lunar": 8249,
      "snowfall": 8250,
      "snowmelt": 8251,
      "thymine": 8252,
      "acceptance": 8253,
      "acceptable": 8254,
      "proofreading": 8255,
      "closing": 8256,
      "colorful": 8257,
      "vulnerable": 8258,
      "workloads": 8259,
      "salt": 8260,
      "infringe": 8261,
      "instantly": 8262,
      "stylists": 8263,
      "ambiance": 8264,
      "citizen": 8265,
      "trigger": 8266,
      "triggers": 8267,
      "triggered": 8268,
      "radioactivity": 8269,
      "cyberattacks": 8270,
      "mitotic": 8271,
      "Naturalis": 8272,
      "nourishment": 8273,
      "Nanos": 8274,
      "aiming": 8275,
      "chewing": 8276,
      "inputs": 8277,
      "strides": 8278,
      "legends": 8279,
      "telescope": 8280,
      "disorder": 8281,
      "teachers": 8282,
      "augmenting": 8283,
      "neurotechnology": 8284,
      "civilization": 8285,
      "Bohr": 8286,
      "Congratulations": 8287,
      "falling": 8288,
      "frequent": 8289,
      "pulled": 8290,
      "pulses": 8291,
      "enzymatic": 8292,
      "rows": 8293,
      "leave": 8294,
      "leaky": 8295,
      "debt": 8296,
      "empty": 8297,
      "weighing": 8298,
      "microwaves": 8299,
      "microwave": 8300,
      "Collaborative": 8301,
      "1909": 8302,
      "infectious": 8303,
      "semipermeable": 8304,
      "utilizing": 8305,
      "White": 8306,
      "escape": 8307,
      "seamlessly": 8308,
      "blame": 8309,
      "contexts": 8310,
      "experimentally": 8311,
      "branding": 8312,
      "bridge": 8313,
      "Philosophi": 8314,
      "safeguards": 8315,
      "honestly": 8316,
      "Feeling": 8317,
      "bulges": 8318,
      "gentle": 8319,
      "moles": 8320,
      "molarity": 8321,
      "pushing": 8322,
      "voice": 8323,
      "inherited": 8324,
      "reasons": 8325,
      "stomata": 8326,
      "elongated": 8327,
      "artist": 8328,
      "exposed": 8329,
      "blogging": 8330,
      "limitations": 8331,
      "statistical": 8332,
      "excitement": 8333,
      "brighten": 8334,
      "nitrogenous": 8335,
      "rejuvenating": 8336,
      "Atomic": 8337,
      "Erwin": 8338,
      "Electronegativity": 8339,
      "Financial": 8340,
      "Hubble": 8341,
      "Hybridization": 8342,
      "Mathematica": 8343,
      "Synaptic": 8344,
      "Synthesis": 8345,
      "Symbiotic": 8346,
      "billions": 8347,
      "laptop": 8348,
      "passionate": 8349,
      "texture": 8350,
      "years": 8351,
      "tolerating": 8352,
      "resonates": 8353,
      "extensions": 8354,
      "spoof": 8355,
      "spoken": 8356,
      "occasion": 8357,
      "indulge": 8358,
      "segments": 8359,
      "warmth": 8360,
      "capitalize": 8361,
      "expenditure": 8362,
      "responsibilities": 8363,
      "1912": 8364,
      "switches": 8365,
      "seminars": 8366,
      "Oxidative": 8367,
      "trailblazing": 8368,
      "Digestion": 8369,
      "Microorganisms": 8370,
      "Predictive": 8371,
      "Preventing": 8372,
      "magnify": 8373,
      "petals": 8374,
      "running": 8375,
      "rusting": 8376,
      "wildest": 8377,
      "woodworking": 8378,
      "tilt": 8379,
      "reveal": 8380,
      "removal": 8381,
      "request": 8382,
      "defining": 8383,
      "defined": 8384,
      "abnormalities": 8385,
      "compete": 8386,
      "competing": 8387,
      "prepare": 8388,
      "explorers": 8389,
      "exploratory": 8390,
      "illuminated": 8391,
      "curtains": 8392,
      "advisors": 8393,
      "availability": 8394,
      "correction": 8395,
      "brilliant": 8396,
      "partnerships": 8397,
      "counselors": 8398,
      "follicular": 8399,
      "horizon": 8400,
      "George": 8401,
      "Translation": 8402,
      "Transcription": 8403,
      "crafting": 8404,
      "crafted": 8405,
      "luteal": 8406,
      "+],": 8407,
      "Avatar": 8408,
      "Carnot": 8409,
      "Carbon": 8410,
      "Surrounding": 8411,
      "Surprise": 8412,
      "bank": 8413,
      "bounce": 8414,
      "bouncing": 8415,
      "darkness": 8416,
      "eavesdrop": 8417,
      "freshwater": 8418,
      "governing": 8419,
      "governs": 8420,
      "narrow": 8421,
      "sonar": 8422,
      "tourism": 8423,
      "detoxification": 8424,
      "conferences": 8425,
      "appears": 8426,
      "appearance": 8427,
      "advertisements": 8428,
      "spontaneous": 8429,
      "spontaneously": 8430,
      "ocytes": 8431,
      "symphony": 8432,
      "symptoms": 8433,
      "symbols": 8434,
      "pretty": 8435,
      "prevention": 8436,
      "preventive": 8437,
      "mastering": 8438,
      "grocery": 8439,
      "groceries": 8440,
      "decorating": 8441,
      "tastes": 8442,
      "tasting": 8443,
      "carrying": 8444,
      "twinkle": 8445,
      "twinkling": 8446,
      "doesn": 8447,
      "hydrolysis": 8448,
      "hydrolyzed": 8449,
      "1896": 8450,
      "1897": 8451,
      "segregation": 8452,
      "segregate": 8453,
      "installers": 8454,
      "orchestrating": 8455,
      "Personalized": 8456,
      "mirrors": 8457,
      "1687": 8458,
      "Bonjour": 8459,
      "Glaciers": 8460,
      "Generally": 8461,
      "Lightning": 8462,
      "Moon": 8463,
      "Magnets": 8464,
      "Stoichi": 8465,
      "busting": 8466,
      "fabricating": 8467,
      "fishbone": 8468,
      "hanging": 8469,
      "macronutrients": 8470,
      "mammals": 8471,
      "ritual": 8472,
      "sacs": 8473,
      "sheets": 8474,
      "taps": 8475,
      "wireless": 8476,
      "intimidating": 8477,
      "alerting": 8478,
      "rotates": 8479,
      "attempts": 8480,
      "vegetation": 8481,
      "conclusions": 8482,
      "Increasing": 8483,
      "blastula": 8484,
      "intervals": 8485,
      "weaknesses": 8486,
      "shedding": 8487,
      "biofuels": 8488,
      "float": 8489,
      "expansions": 8490,
      "gradients": 8491,
      "ceramic": 8492,
      "fragments": 8493,
      "Planning": 8494,
      "studied": 8495,
      "attached": 8496,
      "ribosome": 8497,
      "architecture": 8498,
      "surveying": 8499,
      "creditworthiness": 8500,
      "electrolyte": 8501,
      "photovoltaic": 8502,
      "occupy": 8503,
      "encountered": 8504,
      "wildlife": 8505,
      "enchantment": 8506,
      "preparedness": 8507,
      "Nicolas": 8508,
      "duplicated": 8509,
      "loyalty": 8510,
      "stabilizes": 8511,
      "neuropsychological": 8512,
      "Austrian": 8513,
      "Asteroids": 8514,
      "BF3": 8515,
      "Beyond": 8516,
      "Blood": 8517,
      "CH4": 8518,
      "Coping": 8519,
      "DIY": 8520,
      "Dude": 8521,
      "Dalton": 8522,
      "Doppler": 8523,
      "DevOps": 8524,
      "Edwin": 8525,
      "Eukaryotic": 8526,
      "Estrogen": 8527,
      "Echolocation": 8528,
      "Equipped": 8529,
      "EHRs": 8530,
      "Fraud": 8531,
      "French": 8532,
      "Galaxies": 8533,
      "Gamow": 8534,
      "Gastrulation": 8535,
      "Gibbs": 8536,
      "Henri": 8537,
      "Helmhol": 8538,
      "Hermann": 8539,
      "John": 8540,
      "Jupiter": 8541,
      "Karma": 8542,
      "Léonard": 8543,
      "Lysosomes": 8544,
      "London": 8545,
      "Niels": 8546,
      "Nonmetals": 8547,
      "Navigating": 8548,
      "Nutrition": 8549,
      "Organ": 8550,
      "Public": 8551,
      "Quality": 8552,
      "Recharging": 8553,
      "Robotic": 8554,
      "Striking": 8555,
      "Schröding": 8556,
      "Telescopes": 8557,
      "Various": 8558,
      "William": 8559,
      "Yeah": 8560,
      "benzene": 8561,
      "cinematic": 8562,
      "codes": 8563,
      "caution": 8564,
      "climates": 8565,
      "crowdfunding": 8566,
      "dull": 8567,
      "eyepiece": 8568,
      "ethanol": 8569,
      "frozen": 8570,
      "firsth": 8571,
      "false": 8572,
      "gourmet": 8573,
      "hectic": 8574,
      "heterogeneous": 8575,
      "hosp": 8576,
      "hackers": 8577,
      "igration": 8578,
      "jogging": 8579,
      "matters": 8580,
      "museums": 8581,
      "passions": 8582,
      "pizza": 8583,
      "random": 8584,
      "rules": 8585,
      "rendering": 8586,
      "since": 8587,
      "slippery": 8588,
      "wrangling": 8589,
      "indivisible": 8590,
      "inhibiting": 8591,
      "inventory": 8592,
      "independently": 8593,
      "inadequacy": 8594,
      "inquiry": 8595,
      "anecdotes": 8596,
      "estuaries": 8597,
      "ertilizers": 8598,
      "endeavor": 8599,
      "third": 8600,
      "thunderstorms": 8601,
      "thickening": 8602,
      "reports": 8603,
      "repulsive": 8604,
      "readily": 8605,
      "retirement": 8606,
      "stolen": 8607,
      "tokenization": 8608,
      "leukocytes": 8609,
      "assigning": 8610,
      "accommodations": 8611,
      "prognosis": 8612,
      "detailed": 8613,
      "dexterity": 8614,
      "forgotten": 8615,
      "vibrations": 8616,
      "restaurants": 8617,
      "unfortunately": 8618,
      "unleash": 8619,
      "contingency": 8620,
      "convolutional": 8621,
      "commemorate": 8622,
      "diagrams": 8623,
      "exceeds": 8624,
      "osmotic": 8625,
      "amputees": 8626,
      "spiders": 8627,
      "sprinkle": 8628,
      "terraforming": 8629,
      "emails": 8630,
      "perpetuate": 8631,
      "Ingenhousz": 8632,
      "nebulae": 8633,
      "endangered": 8634,
      "phloem": 8635,
      "phagocytosis": 8636,
      "comprehensive": 8637,
      "moisture": 8638,
      "overcame": 8639,
      "portfolios": 8640,
      "maestros": 8641,
      "cisternae": 8642,
      "outlined": 8643,
      "intermittency": 8644,
      "pronounced": 8645,
      "paradigm": 8646,
      "controversial": 8647,
      "deciphering": 8648,
      "bigger": 8649,
      "flattened": 8650,
      "caregivers": 8651,
      "trajectory": 8652,
      "wardrobe": 8653,
      "submerged": 8654,
      "cohesive": 8655,
      "meteorology": 8656,
      "metropolises": 8657,
      "surgery": 8658,
      "neurological": 8659,
      "demographics": 8660,
      "tailpipe": 8661,
      "zygote": 8662,
      "cryptids": 8663,
      "puzzles": 8664,
      "Weekends": 8665,
      "handwritten": 8666,
      "Procrastination": 8667,
      "cytoskeleton": 8668,
      "Principia": 8669,
      "Responding": 8670,
      "Toastmasters": 8671,
      "Philosophiæ": 8672,
      "Stoichiometry": 8673,
      "Helmholtz": 8674,
      "Schrödinger": 8675,
      "firsthand": 8676,
      "'!": 8677,
      "')": 8678,
      "+),": 8679,
      "02": 8680,
      "12O": 8681,
      "24": 8682,
      "27": 8683,
      "29": 8684,
      "66": 8685,
      "79": 8686,
      "AA": 8687,
      "AN": 8688,
      "Ah": 8689,
      "Aer": 8690,
      "Air": 8691,
      "Aby": 8692,
      "Ages": 8693,
      "Aquatic": 8694,
      "Agents": 8695,
      "BI": 8696,
      "Br": 8697,
      "Bre": 8698,
      "Bel": 8699,
      "Bac": 8700,
      "Bit": 8701,
      "Bus": 8702,
      "But": 8703,
      "Bud": 8704,
      "Both": 8705,
      "Brain": 8706,
      "CC": 8707,
      "CP": 8708,
      "Cat": 8709,
      "Cle": 8710,
      "Cent": 8711,
      "Cam": 8712,
      "Cons": 8713,
      "Cra": 8714,
      "Count": 8715,
      "Coper": 8716,
      "Craw": 8717,
      "Cath": 8718,
      "Cont": 8719,
      "CCS": 8720,
      "Corn": 8721,
      "Counting": 8722,
      "Di": 8723,
      "Dor": 8724,
      "DPR": 8725,
      "Dark": 8726,
      "El": 8727,
      "East": 8728,
      "Eco": 8729,
      "Ethere": 8730,
      "ECC": 8731,
      "Fi": 8732,
      "Fac": 8733,
      "Fur": 8734,
      "From": 8735,
      "Fast": 8736,
      "Fossi": 8737,
      "Fail": 8738,
      "Finger": 8739,
      "G1": 8740,
      "G2": 8741,
      "GP": 8742,
      "Gar": 8743,
      "Gly": 8744,
      "Gard": 8745,
      "GMO": 8746,
      "GDPR": 8747,
      "Ha": 8748,
      "Hor": 8749,
      "Home": 8750,
      "Hang": 8751,
      "Hindu": 8752,
      "HIP": 8753,
      "H12O": 8754,
      "Is": 8755,
      "Ion": 8756,
      "Isle": 8757,
      "IMO": 8758,
      "Ju": 8759,
      "Jur": 8760,
      "Jedi": 8761,
      "Kek": 8762,
      "Knit": 8763,
      "Kinetic": 8764,
      "La": 8765,
      "Lo": 8766,
      "Lou": 8767,
      "Lot": 8768,
      "Lore": 8769,
      "Langer": 8770,
      "Long": 8771,
      "Lee": 8772,
      "Latin": 8773,
      "Luck": 8774,
      "MS": 8775,
      "Mon": 8776,
      "Mand": 8777,
      "Mot": 8778,
      "Mid": 8779,
      "Mort": 8780,
      "Mother": 8781,
      "Meas": 8782,
      "Marti": 8783,
      "Molecul": 8784,
      "MIMO": 8785,
      "NO": 8786,
      "Na": 8787,
      "Nas": 8788,
      "Net": 8789,
      "Ness": 8790,
      "Nam": 8791,
      "Nice": 8792,
      "Nature": 8793,
      "Noble": 8794,
      "Norman": 8795,
      "OR": 8796,
      "Ok": 8797,
      "Oce": 8798,
      "Our": 8799,
      "One": 8800,
      "PT": 8801,
      "Per": 8802,
      "Pen": 8803,
      "Pic": 8804,
      "Pol": 8805,
      "Pur": 8806,
      "Pain": 8807,
      "Pred": 8808,
      "Pati": 8809,
      "Park": 8810,
      "PPE": 8811,
      "Paste": 8812,
      "RS": 8813,
      "Ro": 8814,
      "Rel": 8815,
      "Ris": 8816,
      "Rex": 8817,
      "Reduc": 8818,
      "Radi": 8819,
      "SD": 8820,
      "Sk": 8821,
      "Sal": 8822,
      "Suc": 8823,
      "Stra": 8824,
      "Sum": 8825,
      "Sher": 8826,
      "Saf": 8827,
      "Sounds": 8828,
      "Strum": 8829,
      "Salsa": 8830,
      "Tele": 8831,
      "Teach": 8832,
      "Trop": 8833,
      "Turning": 8834,
      "TCP": 8835,
      "TMS": 8836,
      "UI": 8837,
      "UX": 8838,
      "Us": 8839,
      "UBI": 8840,
      "Vi": 8841,
      "Wr": 8842,
      "Wood": 8843,
      "Wells": 8844,
      "Xylem": 8845,
      "aa": 8846,
      "az": 8847,
      "ament": 8848,
      "aur": 8849,
      "aus": 8850,
      "aqu": 8851,
      "arom": 8852,
      "aven": 8853,
      "awa": 8854,
      "akers": 8855,
      "athesis": 8856,
      "bay": 8857,
      "bot": 8858,
      "biz": 8859,
      "bare": 8860,
      "ball": 8861,
      "bra": 8862,
      "bry": 8863,
      "bors": 8864,
      "bates": 8865,
      "bators": 8866,
      "binary": 8867,
      "batt": 8868,
      "bber": 8869,
      "bak": 8870,
      "biling": 8871,
      "balls": 8872,
      "bake": 8873,
      "buck": 8874,
      "baa": 8875,
      "cro": 8876,
      "cou": 8877,
      "cies": 8878,
      "call": 8879,
      "cents": 8880,
      "cup": 8881,
      "cris": 8882,
      "coring": 8883,
      "certainly": 8884,
      "cru": 8885,
      "cobots": 8886,
      "dh": 8887,
      "dé": 8888,
      "dle": 8889,
      "dar": 8890,
      "dome": 8891,
      "drough": 8892,
      "dress": 8893,
      "dles": 8894,
      "dinn": 8895,
      "dwar": 8896,
      "dual": 8897,
      "danc": 8898,
      "dread": 8899,
      "drought": 8900,
      "dwatching": 8901,
      "dinos": 8902,
      "dorman": 8903,
      "ean": 8904,
      "eve": 8905,
      "evi": 8906,
      "eye": 8907,
      "fs": 8908,
      "fan": 8909,
      "fel": 8910,
      "fli": 8911,
      "fet": 8912,
      "fell": 8913,
      "fere": 8914,
      "flip": 8915,
      "fancy": 8916,
      "firm": 8917,
      "festive": 8918,
      "gin": 8919,
      "gor": 8920,
      "gog": 8921,
      "gations": 8922,
      "gence": 8923,
      "gall": 8924,
      "gust": 8925,
      "gma": 8926,
      "gase": 8927,
      "gated": 8928,
      "gles": 8929,
      "gates": 8930,
      "gently": 8931,
      "gonic": 8932,
      "golf": 8933,
      "had": 8934,
      "him": 8935,
      "ham": 8936,
      "hence": 8937,
      "hass": 8938,
      "hood": 8939,
      "hoy": 8940,
      "hitch": 8941,
      "hilar": 8942,
      "hroom": 8943,
      "halls": 8944,
      "hoods": 8945,
      "ian": 8946,
      "iat": 8947,
      "ile": 8948,
      "iage": 8949,
      "ife": 8950,
      "ivers": 8951,
      "iors": 8952,
      "ifi": 8953,
      "itics": 8954,
      "iries": 8955,
      "ians": 8956,
      "ietal": 8957,
      "ihoods": 8958,
      "je": 8959,
      "jà": 8960,
      "jou": 8961,
      "juring": 8962,
      "junc": 8963,
      "jects": 8964,
      "kJ": 8965,
      "ker": 8966,
      "kel": 8967,
      "ket": 8968,
      "kne": 8969,
      "kill": 8970,
      "kling": 8971,
      "kite": 8972,
[...]
