{
  "version": "1.0",
  "truncation": null,
  "padding": null,
  "added_tokens": [
    {
      "id": 0,
      "content": "[UNK]",
      "single_word": false,
      "lstrip": false,
      "rstrip": false,
      "normalized": false,
      "special": true
    },
    {
      "id": 1,
      "content": "[PAD]",
      "single_word": false,
      "lstrip": false,
      "rstrip": false,
      "normalized": false,
      "special": true
    },
    {
      "id": 2,
      "content": "[SOS]",
      "single_word": false,
      "lstrip": false,
      "rstrip": false,
      "normalized": false,
      "special": true
    },
    {
      "id": 3,
      "content": "[EOS]",
      "single_word": false,
      "lstrip": false,
      "rstrip": false,
      "normalized": false,
      "special": true
    }
  ],
  "normalizer": null,
  "pre_tokenizer": {
    "type": "Whitespace"
  },
  "post_processor": null,
  "decoder": null,
  "model": {
    "type": "BPE",
    "dropout": null,
    "unk_token": "[UNK]",
    "continuing_subword_prefix": null,
    "end_of_word_suffix": null,
    "fuse_unk": false,
    "byte_fallback": false,
    "ignore_merges": false,
    "vocab": {
      "[UNK]": 0,
      "[PAD]": 1,
      "[SOS]": 2,
      "[EOS]": 3,
      "!": 4,
      "'": 5,
      "(": 6,
      ")": 7,
      ",": 8,
      "-": 9,
      ".": 10,
      "1": 11,
      "3": 12,
      "5": 13,
      "9": 14,
      "?": 15,
      "A": 16,
      "B": 17,
      "C": 18,
      "D": 19,
      "E": 20,
      "F": 21,
      "G": 22,
      "H": 23,
      "I": 24,
      "J": 25,
      "L": 26,
      "M": 27,
      "N": 28,
      "O": 29,
      "P": 30,
      "R": 31,
      "S": 32,
      "T": 33,
      "U": 34,
      "V": 35,
      "W": 36,
      "X": 37,
      "Y": 38,
      "Z": 39,
      "a": 40,
      "b": 41,
      "c": 42,
      "d": 43,
      "e": 44,
      "f": 45,
      "g": 46,
      "h": 47,
      "i": 48,
      "j": 49,
      "k": 50,
      "l": 51,
      "m": 52,
      "n": 53,
      "o": 54,
      "p": 55,
      "q": 56,
      "r": 57,
      "s": 58,
      "t": 59,
      "u": 60,
      "v": 61,
      "w": 62,
      "x": 63,
      "y": 64,
      "z": 65,
      "in": 66,
      "th": 67,
      "at": 68,
      "an": 69,
      "re": 70,
      "ou": 71,
      "the": 72,
      "te": 73,
      "on": 74,
      "Wh": 75,
      "you": 76,
      "me": 77,
      "or": 78,
      "ow": 79,
      "es": 80,
      "What": 81,
      "of": 82,
      "er": 83,
      "ing": 84,
      "li": 85,
      "ti": 86,
      "to": 87,
      "le": 88,
      "ro": 89,
      "is": 90,
      "al": 91,
      "How": 92,
      "en": 93,
      "do": 94,
      "st": 95,
      "ar": 96,
      "el": 97,
      "and": 98,
      "ch": 99,
      "ion": 100,
      "it": 101,
      "ic": 102,
      "pro": 103,
      "are": 104,
      "co": 105,
      "ce": 106,
      "ation": 107,
      "Can": 108,
      "ay": 109,
      "ve": 110,
      "tel": 111,
      "telli": 112,
      "de": 113,
      "for": 114,
      "lo": 115,
      "In": 116,
      "Ai": 117,
      "your": 118,
      "telliAi": 119,
      "IntelliAi": 120,
      "fe": 121,
      "ain": 122,
      "ate": 123,
      "be": 124,
      "ver": 125,
      "se": 126,
      "can": 127,
      "so": 128,
      "nt": 129,
      "ac": 130,
      "am": 131,
      "ab": 132,
      "un": 133,
      "ld": 134,
      "pl": 135,
      "ss": 136,
      "po": 137,
      "wi": 138,
      "we": 139,
      "con": 140,
      "if": 141,
      "tu": 142,
      "tion": 143,
      "tr": 144,
      "sp": 145,
      "ment": 146,
      "ter": 147,
      "ap": 148,
      "ts": 149,
      "ag": 150,
      "im": 151,
      "vi": 152,
      "ind": 153,
      "ces": 154,
      "how": 155,
      "ers": 156,
      "cre": 157,
      "ey": 158,
      "Who": 159,
      "with": 160,
      "some": 161,
      "com": 162,
      "wh": 163,
      "su": 164,
      "ach": 165,
      "us": 166,
      "ould": 167,
      "ll": 168,
      "team": 169,
      "ex": 170,
      "wor": 171,
      "ke": 172,
      "mo": 173,
      "way": 174,
      "op": 175,
      "does": 176,
      "Hey": 177,
      "man": 178,
      "my": 179,
      "gy": 180,
      "hel": 181,
      "ib": 182,
      "ty": 183,
      "work": 184,
      "ity": 185,
      "ations": 186,
      "help": 187,
      "role": 188,
      "day": 189,
      "ri": 190,
      "vel": 191,
      "ed": 192,
      "ul": 193,
      "ink": 194,
      "no": 195,
      "think": 196,
      "ite": 197,
      "fa": 198,
      "ever": 199,
      "ste": 200,
      "ere": 201,
      "gen": 202,
      "sy": 203,
      "ting": 204,
      "out": 205,
      "cti": 206,
      "ef": 207,
      "ad": 208,
      "ci": 209,
      "cess": 210,
      "mb": 211,
      "ture": 212,
      "gh": 213,
      "dis": 214,
      "ne": 215,
      "sh": 216,
      "lear": 217,
      "ance": 218,
      "devel": 219,
      "develop": 220,
      "as": 221,
      "od": 222,
      "ning": 223,
      "ical": 224,
      "id": 225,
      "tech": 226,
      "ang": 227,
      "tic": 228,
      "str": 229,
      "ell": 230,
      "ible": 231,
      "du": 232,
      "vor": 233,
      "favor": 234,
      "favorite": 235,
      "memb": 236,
      "process": 237,
      "age": 238,
      "em": 239,
      "per": 240,
      "mun": 241,
      "about": 242,
      "members": 243,
      "nd": 244,
      "si": 245,
      "ir": 246,
      "ctive": 247,
      "nolo": 248,
      "technolo": 249,
      "hand": 250,
      "today": 251,
      "its": 252,
      "effe": 253,
      "Do": 254,
      "lic": 255,
      "ali": 256,
      "ur": 257,
      "come": 258,
      "ssible": 259,
      "possible": 260,
      "technology": 261,
      "ine": 262,
      "stem": 263,
      "Is": 264,
      "ust": 265,
      "app": 266,
      "expl": 267,
      "fic": 268,
      "qu": 269,
      "star": 270,
      "go": 271,
      "he": 272,
      "ly": 273,
      "impro": 274,
      "commun": 275,
      "Where": 276,
      "create": 277,
      "communic": 278,
      "ial": 279,
      "handle": 280,
      "ho": 281,
      "ant": 282,
      "teach": 283,
      "able": 284,
      "vir": 285,
      "system": 286,
      "uc": 287,
      "like": 288,
      "arti": 289,
      "ass": 290,
      "ist": 291,
      "cell": 292,
      "fo": 293,
      "ha": 294,
      "just": 295,
      "chem": 296,
      "become": 297,
      "explain": 298,
      "improve": 299,
      "ma": 300,
      "intelli": 301,
      "imp": 302,
      "who": 303,
      "ficial": 304,
      "artificial": 305,
      "intelligen": 306,
      "ction": 307,
      "could": 308,
      "thing": 309,
      "bu": 310,
      "lu": 311,
      "loc": 312,
      "Go": 313,
      "ct": 314,
      "ten": 315,
      "new": 316,
      "form": 317,
      "should": 318,
      "intelligence": 319,
      "bo": 320,
      "dif": 321,
      "gi": 322,
      "mor": 323,
      "ess": 324,
      "bet": 325,
      "vity": 326,
      "red": 327,
      "tial": 328,
      "effective": 329,
      "ud": 330,
      "ans": 331,
      "provi": 332,
      "comp": 333,
      "assist": 334,
      "chemical": 335,
      "ving": 336,
      "ati": 337,
      "ted": 338,
      "ergy": 339,
      "ties": 340,
      "rom": 341,
      "energy": 342,
      "provide": 343,
      "pt": 344,
      "ther": 345,
      "disco": 346,
      "have": 347,
      "ili": 348,
      "ta": 349,
      "cept": 350,
      "concept": 351,
      "what": 352,
      "br": 353,
      "hu": 354,
      "pr": 355,
      "use": 356,
      "ything": 357,
      "poten": 358,
      "heal": 359,
      "potential": 360,
      "ild": 361,
      "ps": 362,
      "sk": 363,
      "ress": 364,
      "resp": 365,
      "tual": 366,
      "communicate": 367,
      "der": 368,
      "hind": 369,
      "res": 370,
      "our": 371,
      "ory": 372,
      "behind": 373,
      "act": 374,
      "spe": 375,
      "start": 376,
      "Good": 377,
      "human": 378,
      "health": 379,
      "bi": 380,
      "sis": 381,
      "ous": 382,
      "med": 383,
      "als": 384,
      "fere": 385,
      "ality": 386,
      "build": 387,
      "differe": 388,
      "from": 389,
      "ill": 390,
      "ree": 391,
      "proach": 392,
      "approach": 393,
      "learn": 394,
      "learning": 395,
      "mind": 396,
      "tain": 397,
      "lution": 398,
      "la": 399,
      "there": 400,
      "ent": 401,
      "abili": 402,
      "manage": 403,
      "iz": 404,
      "pes": 405,
      "were": 406,
      "ght": 407,
      "fi": 408,
      "ge": 409,
      "over": 410,
      "life": 411,
      "action": 412,
      "fu": 413,
      "gr": 414,
      "ks": 415,
      "ms": 416,
      "reality": 417,
      "stud": 418,
      "plan": 419,
      "ments": 420,
      "everything": 421,
      "impact": 422,
      "lock": 423,
      "au": 424,
      "den": 425,
      "up": 426,
      "time": 427,
      "lications": 428,
      "study": 429,
      "main": 430,
      "development": 431,
      "Hi": 432,
      "Hel": 433,
      "iver": 434,
      "vo": 435,
      "inte": 436,
      "reaction": 437,
      "feel": 438,
      "morning": 439,
      "Hello": 440,
      "il": 441,
      "chang": 442,
      "skill": 443,
      "cul": 444,
      "play": 445,
      "using": 446,
      "applications": 447,
      "ig": 448,
      "ound": 449,
      "erv": 450,
      "going": 451,
      "intere": 452,
      "hi": 453,
      "king": 454,
      "sel": 455,
      "ster": 456,
      "stay": 457,
      "vered": 458,
      "trans": 459,
      "discovered": 460,
      "skills": 461,
      "produ": 462,
      "gene": 463,
      "future": 464,
      "want": 465,
      "into": 466,
      "trib": 467,
      "struc": 468,
      "compu": 469,
      "tribu": 470,
      "fun": 471,
      "ra": 472,
      "tre": 473,
      "own": 474,
      "ard": 475,
      "contribu": 476,
      "adv": 477,
      "cells": 478,
      "self": 479,
      "Gree": 480,
      "cu": 481,
      "ort": 482,
      "sted": 483,
      "tings": 484,
      "interested": 485,
      "structure": 486,
      "Greetings": 487,
      "hou": 488,
      "tro": 489,
      "end": 490,
      "ence": 491,
      "arth": 492,
      "itu": 493,
      "syn": 494,
      "strate": 495,
      "function": 496,
      "house": 497,
      "mon": 498,
      "om": 499,
      "stress": 500,
      "set": 501,
      "ways": 502,
      "virtual": 503,
      "ativity": 504,
      "respon": 505,
      "ele": 506,
      "serv": 507,
      "rel": 508,
      "renew": 509,
      "one": 510,
      "chain": 511,
      "law": 512,
      "renewable": 513,
      "Could": 514,
      "Earth": 515,
      "care": 516,
      "atu": 517,
      "lost": 518,
      "ack": 519,
      "types": 520,
      "ace": 521,
      "dri": 522,
      "pers": 523,
      "ough": 524,
      "ists": 525,
      "log": 526,
      "formation": 527,
      "volution": 528,
      "feeling": 529,
      "asu": 530,
      "cl": 531,
      "find": 532,
      "theory": 533,
      "ics": 534,
      "sed": 535,
      "ween": 536,
      "gies": 537,
      "better": 538,
      "between": 539,
      "different": 540,
      "maintain": 541,
      "cy": 542,
      "did": 543,
      "eco": 544,
      "ie": 545,
      "thr": 546,
      "ating": 547,
      "lim": 548,
      "tive": 549,
      "ice": 550,
      "secre": 551,
      "will": 552,
      "conf": 553,
      "bio": 554,
      "ability": 555,
      "ble": 556,
      "city": 557,
      "ost": 558,
      "thesis": 559,
      "Why": 560,
      "take": 561,
      "ivers": 562,
      "synthesis": 563,
      "AI": 564,
      "fac": 565,
      "pow": 566,
      "inno": 567,
      "mer": 568,
      "ori": 569,
      "soci": 570,
      "ples": 571,
      "spir": 572,
      "make": 573,
      "change": 574,
      "person": 575,
      "through": 576,
      "innov": 577,
      "af": 578,
      "nce": 579,
      "tele": 580,
      "tiv": 581,
      "more": 582,
      "foster": 583,
      "An": 584,
      "cr": 585,
      "hid": 586,
      "other": 587,
      "sm": 588,
      "ze": 589,
      "mend": 590,
      "alle": 591,
      "sol": 592,
      "mental": 593,
      "ancements": 594,
      "ques": 595,
      "home": 596,
      "ca": 597,
      "cts": 598,
      "ph": 599,
      "situ": 600,
      "information": 601,
      "ater": 602,
      "antu": 603,
      "recom": 604,
      "ong": 605,
      "eng": 606,
      "envir": 607,
      "propo": 608,
      "quantu": 609,
      "fix": 610,
      "contributed": 611,
      "advancements": 612,
      "respons": 613,
      "hidden": 614,
      "environ": 615,
      "proposed": 616,
      "quantum": 617,
      "NA": 618,
      "by": 619,
      "block": 620,
      "des": 621,
      "lang": 622,
      "org": 623,
      "ated": 624,
      "acti": 625,
      "ages": 626,
      "someone": 627,
      "shap": 628,
      "tics": 629,
      "systems": 630,
      "situations": 631,
      "recommend": 632,
      "langu": 633,
      "DNA": 634,
      "bon": 635,
      "cur": 636,
      "clim": 637,
      "here": 638,
      "ok": 639,
      "port": 640,
      "ring": 641,
      "this": 642,
      "atom": 643,
      "ary": 644,
      "exp": 645,
      "used": 646,
      "healthcare": 647,
      "plants": 648,
      "reactions": 649,
      "strategies": 650,
      "conflic": 651,
      "Any": 652,
      "blockchain": 653,
      "language": 654,
      "climate": 655,
      "bus": 656,
      "gn": 657,
      "ges": 658,
      "inter": 659,
      "aly": 660,
      "proper": 661,
      "been": 662,
      "aging": 663,
      "creativity": 664,
      "super": 665,
      "tail": 666,
      "management": 667,
      "ize": 668,
      "ben": 669,
      "ven": 670,
      "enh": 671,
      "iting": 672,
      "featu": 673,
      "under": 674,
      "unlock": 675,
      "exam": 676,
      "ular": 677,
      "ources": 678,
      "hips": 679,
      "logists": 680,
      "organ": 681,
      "You": 682,
      "bal": 683,
      "gain": 684,
      "ies": 685,
      "kn": 686,
      "pi": 687,
      "par": 688,
      "um": 689,
      "that": 690,
      "men": 691,
      "mes": 692,
      "ision": 693,
      "creation": 694,
      "motiv": 695,
      "managing": 696,
      "ationships": 697,
      "educ": 698,
      "communication": 699,
      "cellular": 700,
      "brain": 701,
      "difference": 702,
      "transm": 703,
      "computing": 704,
      "relationships": 705,
      "education": 706,
      "ak": 707,
      "cri": 708,
      "dr": 709,
      "her": 710,
      "ivi": 711,
      "mi": 712,
      "mach": 713,
      "ness": 714,
      "sci": 715,
      "tas": 716,
      "ves": 717,
      "wind": 718,
      "ances": 719,
      "ors": 720,
      "est": 721,
      "ings": 722,
      "stages": 723,
      "challe": 724,
      "proble": 725,
      "tell": 726,
      "dead": 727,
      "actual": 728,
      "indivi": 729,
      "achie": 730,
      "discu": 731,
      "ative": 732,
      "respir": 733,
      "abilities": 734,
      "laws": 735,
      "iversity": 736,
      "cast": 737,
      "examples": 738,
      "motivated": 739,
      "challen": 740,
      "actually": 741,
      "individu": 742,
      "discuss": 743,
      "back": 744,
      "cle": 745,
      "da": 746,
      "io": 747,
      "ily": 748,
      "mar": 749,
      "tal": 750,
      "won": 751,
      "zy": 752,
      "stain": 753,
      "solution": 754,
      "tra": 755,
      "immun": 756,
      "sustain": 757,
      "duce": 758,
      "culture": 759,
      "asures": 760,
      "responsible": 761,
      "bond": 762,
      "benef": 763,
      "enhance": 764,
      "machine": 765,
      "problem": 766,
      "achieve": 767,
      "individuals": 768,
      "cus": 769,
      "ccess": 770,
      "evolution": 771,
      "ful": 772,
      "gu": 773,
      "mic": 774,
      "pri": 775,
      "tin": 776,
      "ufac": 777,
      "zard": 778,
      "iness": 779,
      "anci": 780,
      "rep": 781,
      "met": 782,
      "enti": 783,
      "enzy": 784,
      "posi": 785,
      "wizard": 786,
      "tran": 787,
      "success": 788,
      "manufac": 789,
      "ases": 790,
      "prin": 791,
      "healthy": 792,
      "minds": 793,
      "ign": 794,
      "computer": 795,
      "maintaining": 796,
      "spirits": 797,
      "personal": 798,
      "innovation": 799,
      "design": 800,
      "properties": 801,
      "daily": 802,
      "wonder": 803,
      "sustainable": 804,
      "priori": 805,
      "enzymes": 806,
      "ctr": 807,
      "ug": 808,
      "water": 809,
      "ines": 810,
      "intro": 811,
      "resi": 812,
      "lience": 813,
      "tom": 814,
      "endo": 815,
      "usion": 816,
      "vely": 817,
      "ghost": 818,
      "side": 819,
      "alien": 820,
      "hold": 821,
      "get": 822,
      "service": 823,
      "driving": 824,
      "ecosystems": 825,
      "known": 826,
      "tasks": 827,
      "introduce": 828,
      "resilience": 829,
      "car": 830,
      "dat": 831,
      "je": 832,
      "pe": 833,
      "pho": 834,
      "sources": 835,
      "uro": 836,
      "was": 837,
      "tips": 838,
      "tize": 839,
      "tosynthesis": 840,
      "entr": 841,
      "prote": 842,
      "fect": 843,
      "being": 844,
      "contro": 845,
      "spell": 846,
      "space": 847,
      "term": 848,
      "where": 849,
      "sur": 850,
      "ctively": 851,
      "neuro": 852,
      "perspe": 853,
      "effectively": 854,
      "ural": 855,
      "practi": 856,
      "secrets": 857,
      "business": 858,
      "balance": 859,
      "respiration": 860,
      "immune": 861,
      "prioritize": 862,
      "aliens": 863,
      "photosynthesis": 864,
      "spells": 865,
      "aking": 866,
      "fin": 867,
      "nat": 868,
      "sound": 869,
      "inion": 870,
      "analy": 871,
      "real": 872,
      "their": 873,
      "oration": 874,
      "tim": 875,
      "ensu": 876,
      "sts": 877,
      "whel": 878,
      "opinion": 879,
      "developed": 880,
      "aster": 881,
      "peri": 882,
      "overwhel": 883,
      "iverse": 884,
      "household": 885,
      "electr": 886,
      "solving": 887,
      "engine": 888,
      "environment": 889,
      "recommendations": 890,
      "marke": 891,
      "positive": 892,
      "data": 893,
      "perspective": 894,
      "natural": 895,
      "ensure": 896,
      "ale": 897,
      "ade": 898,
      "cer": 899,
      "centr": 900,
      "et": 901,
      "gmen": 902,
      "ia": 903,
      "les": 904,
      "mag": 905,
      "ob": 906,
      "ologists": 907,
      "pre": 908,
      "psy": 909,
      "revolution": 910,
      "itation": 911,
      "cover": 912,
      "detail": 913,
      "determ": 914,
      "feed": 915,
      "abo": 916,
      "universe": 917,
      "conserv": 918,
      "train": 919,
      "within": 920,
      "without": 921,
      "techn": 922,
      "emp": 923,
      "stars": 924,
      "giant": 925,
      "discover": 926,
      "augmen": 927,
      "secret": 928,
      "superher": 929,
      "features": 930,
      "organiz": 931,
      "transmit": 932,
      "transp": 933,
      "protein": 934,
      "psych": 935,
      "feedback": 936,
      "conservation": 937,
      "augmented": 938,
      "superhero": 939,
      "bro": 940,
      "bri": 941,
      "bur": 942,
      "best": 943,
      "fer": 944,
      "far": 945,
      "lle": 946,
      "ya": 947,
      "ants": 948,
      "oud": 949,
      "tect": 950,
      "lend": 951,
      "seem": 952,
      "acid": 953,
      "contin": 954,
      "turing": 955,
      "riya": 956,
      "sign": 957,
      "made": 958,
      "board": 959,
      "ession": 960,
      "media": 961,
      "building": 962,
      "productive": 963,
      "cloud": 964,
      "socie": 965,
      "social": 966,
      "teleport": 967,
      "phy": 968,
      "challenges": 969,
      "travel": 970,
      "benefits": 971,
      "ancient": 972,
      "manufacturing": 973,
      "overwhelmed": 974,
      "details": 975,
      "Sup": 976,
      "ath": 977,
      "dy": 978,
      "dig": 979,
      "fusion": 980,
      "hor": 981,
      "ken": 982,
      "key": 983,
      "lat": 984,
      "ling": 985,
      "oce": 986,
      "sion": 987,
      "tter": 988,
      "zed": 989,
      "insi": 990,
      "anim": 991,
      "live": 992,
      "top": 993,
      "dec": 994,
      "loy": 995,
      "secur": 996,
      "try": 997,
      "sup": 998,
      "uses": 999,
      "mote": 1000,
      "move": 1001,
      "angle": 1002,
      "tical": 1003,
      "food": 1004,
      "formul": 1005,
      "brings": 1006,
      "meditation": 1007,
      "autom": 1008,
      "strategy": 1009,
      "mones": 1010,
      "asure": 1011,
      "express": 1012,
      "conflicts": 1013,
      "determine": 1014,
      "training": 1015,
      "broken": 1016,
      "society": 1017,
      "hormones": 1018,
      "security": 1019,
      "Yo": 1020,
      "cused": 1021,
      "ew": 1022,
      "gin": 1023,
      "nuc": 1024,
      "pu": 1025,
      "pred": 1026,
      "ry": 1027,
      "wr": 1028,
      "well": 1029,
      "ates": 1030,
      "them": 1031,
      "ows": 1032,
      "ofession": 1033,
      "erations": 1034,
      "living": 1035,
      "lection": 1036,
      "robo": 1037,
      "ism": 1038,
      "arch": 1039,
      "begin": 1040,
      "concentr": 1041,
      "world": 1042,
      "moder": 1043,
      "optim": 1044,
      "editing": 1045,
      "ulate": 1046,
      "ctivity": 1047,
      "ghts": 1048,
      "anger": 1049,
      "goals": 1050,
      "focused": 1051,
      "imple": 1052,
      "locate": 1053,
      "profession": 1054,
      "productivity": 1055,
      "genetic": 1056,
      "contribute": 1057,
      "after": 1058,
      "affect": 1059,
      "replic": 1060,
      "practice": 1061,
      "revolutionize": 1062,
      "concentration": 1063,
      "modern": 1064,
      "professional": 1065,
      "3D": 1066,
      "air": 1067,
      "bre": 1068,
      "ber": 1069,
      "bit": 1070,
      "cat": 1071,
      "cap": 1072,
      "cour": 1073,
      "cau": 1074,
      "cra": 1075,
      "di": 1076,
      "diversity": 1077,
      "gori": 1078,
      "iques": 1079,
      "nu": 1080,
      "nam": 1081,
      "nment": 1082,
      "pur": 1083,
      "ric": 1084,
      "inf": 1085,
      "thms": 1086,
      "ano": 1087,
      "read": 1088,
      "reques": 1089,
      "ount": 1090,
      "ones": 1091,
      "led": 1092,
      "lebr": 1093,
      "algori": 1094,
      "ents": 1095,
      "art": 1096,
      "celebr": 1097,
      "forces": 1098,
      "vers": 1099,
      "vernment": 1100,
      "selection": 1101,
      "acks": 1102,
      "place": 1103,
      "tions": 1104,
      "agric": 1105,
      "common": 1106,
      "users": 1107,
      "experi": 1108,
      "ulture": 1109,
      "ited": 1110,
      "items": 1111,
      "face": 1112,
      "ered": 1113,
      "ticism": 1114,
      "during": 1115,
      "Does": 1116,
      "exploration": 1117,
      "created": 1118,
      "fore": 1119,
      "making": 1120,
      "compound": 1121,
      "fire": 1122,
      "ground": 1123,
      "changes": 1124,
      "treasures": 1125,
      "relativity": 1126,
      "driven": 1127,
      "cyber": 1128,
      "powers": 1129,
      "mers": 1130,
      "cry": 1131,
      "environmental": 1132,
      "criticism": 1133,
      "mito": 1134,
      "scienti": 1135,
      "talk": 1136,
      "control": 1137,
      "techniques": 1138,
      "employ": 1139,
      "acids": 1140,
      "dynam": 1141,
      "insights": 1142,
      "animals": 1143,
      "decision": 1144,
      "predic": 1145,
      "archite": 1146,
      "algorithms": 1147,
      "agriculture": 1148,
      "dynamics": 1149,
      "astr": 1150,
      "bod": 1151,
      "ev": 1152,
      "fur": 1153,
      "gre": 1154,
      "gar": 1155,
      "hist": 1156,
      "ight": 1157,
      "lan": 1158,
      "lor": 1159,
      "mus": 1160,
      "master": 1161,
      "nano": 1162,
      "oc": 1163,
      "ris": 1164,
      "rain": 1165,
      "sa": 1166,
      "vision": 1167,
      "atory": 1168,
      "any": 1169,
      "onics": 1170,
      "lied": 1171,
      "lism": 1172,
      "ish": 1173,
      "ison": 1174,
      "aries": 1175,
      "char": 1176,
      "ved": 1177,
      "univers": 1178,
      "unwind": 1179,
      "plate": 1180,
      "poison": 1181,
      "convers": 1182,
      "mentation": 1183,
      "ters": 1184,
      "view": 1185,
      "sum": 1186,
      "moon": 1187,
      "steps": 1188,
      "odiversity": 1189,
      "effect": 1190,
      "alized": 1191,
      "applied": 1192,
      "assistance": 1193,
      "biodiversity": 1194,
      "overview": 1195,
      "production": 1196,
      "trend": 1197,
      "advice": 1198,
      "setting": 1199,
      "ature": 1200,
      "power": 1201,
      "spirit": 1202,
      "crine": 1203,
      "homemade": 1204,
      "shaping": 1205,
      "okay": 1206,
      "underst": 1207,
      "drug": 1208,
      "deadly": 1209,
      "custo": 1210,
      "metabo": 1211,
      "endocrine": 1212,
      "ghosts": 1213,
      "neurotransmit": 1214,
      "organized": 1215,
      "tectonics": 1216,
      "ocean": 1217,
      "caught": 1218,
      "requests": 1219,
      "conversations": 1220,
      "metabolism": 1221,
      "neurotransmitters": 1222,
      "Ber": 1223,
      "CR": 1224,
      "IS": 1225,
      "PR": 1226,
      "Tri": 1227,
      "blic": 1228,
      "bases": 1229,
      "cent": 1230,
      "down": 1231,
      "ee": 1232,
      "eth": 1233,
      "ear": 1234,
      "equ": 1235,
      "even": 1236,
      "ging": 1237,
      "hic": 1238,
      "ition": 1239,
      "jor": 1240,
      "may": 1241,
      "mud": 1242,
      "ney": 1243,
      "omers": 1244,
      "ption": 1245,
      "path": 1246,
      "ses": 1247,
      "incl": 1248,
      "atter": 1249,
      "reg": 1250,
      "resolution": 1251,
      "onomers": 1252,
      "meio": 1253,
      "light": 1254,
      "all": 1255,
      "ences": 1256,
      "code": 1257,
      "vehic": 1258,
      "beha": 1259,
      "see": 1260,
      "ambi": 1261,
      "uncer": 1262,
      "ific": 1263,
      "tur": 1264,
      "apt": 1265,
      "vior": 1266,
      "creative": 1267,
      "when": 1268,
      "mole": 1269,
      "motion": 1270,
      "modynamics": 1271,
      "works": 1272,
      "ulum": 1273,
      "gener": 1274,
      "adapt": 1275,
      "cir": 1276,
      "net": 1277,
      "irst": 1278,
      "improving": 1279,
      "virus": 1280,
      "major": 1281,
      "thermodynamics": 1282,
      "speci": 1283,
      "speaking": 1284,
      "mindful": 1285,
      "overcome": 1286,
      "played": 1287,
      "trees": 1288,
      "respond": 1289,
      "elements": 1290,
      "biotechnology": 1291,
      "powered": 1292,
      "personalized": 1293,
      "innovative": 1294,
      "others": 1295,
      "shape": 1296,
      "atomic": 1297,
      "conflict": 1298,
      "underwater": 1299,
      "clean": 1300,
      "bonding": 1301,
      "printing": 1302,
      "getting": 1303,
      "jects": 1304,
      "analytics": 1305,
      "electron": 1306,
      "phys": 1307,
      "expression": 1308,
      "nuclear": 1309,
      "public": 1310,
      "ountain": 1311,
      "cybersecurity": 1312,
      "mitosis": 1313,
      "scientists": 1314,
      "architects": 1315,
      "astronomers": 1316,
      "body": 1317,
      "garden": 1318,
      "risks": 1319,
      "Bermud": 1320,
      "CRIS": 1321,
      "Triangle": 1322,
      "ethical": 1323,
      "meiosis": 1324,
      "behavior": 1325,
      "ambigu": 1326,
      "uncertain": 1327,
      "mindfulness": 1328,
      "Bermuda": 1329,
      "CRISPR": 1330,
      "At": 1331,
      "May": 1332,
      "backs": 1333,
      "fly": 1334,
      "hy": 1335,
      "hab": 1336,
      "happ": 1337,
      "ip": 1338,
      "ired": 1339,
      "long": 1340,
      "map": 1341,
      "ns": 1342,
      "nerv": 1343,
      "oking": 1344,
      "ple": 1345,
      "ton": 1346,
      "vac": 1347,
      "vam": 1348,
      "vent": 1349,
      "insp": 1350,
      "atic": 1351,
      "ane": 1352,
      "reci": 1353,
      "rela": 1354,
      "measures": 1355,
      "meet": 1356,
      "ering": 1357,
      "liz": 1358,
      "tis": 1359,
      "lead": 1360,
      "issu": 1361,
      "isms": 1362,
      "enter": 1363,
      "enhouse": 1364,
      "ital": 1365,
      "cook": 1366,
      "cogn": 1367,
      "ayer": 1368,
      "ply": 1369,
      "ift": 1370,
      "tric": 1371,
      "viliz": 1372,
      "whis": 1373,
      "workplace": 1374,
      "not": 1375,
      "ciples": 1376,
      "civiliz": 1377,
      "stru": 1378,
      "perform": 1379,
      "technologies": 1380,
      "good": 1381,
      "box": 1382,
      "morale": 1383,
      "sky": 1384,
      "tainment": 1385,
      "overbur": 1386,
      "planning": 1387,
      "dened": 1388,
      "rastructure": 1389,
      "setbacks": 1390,
      "logical": 1391,
      "engage": 1392,
      "feature": 1393,
      "pire": 1394,
      "bonds": 1395,
      "principles": 1396,
      "ugg": 1397,
      "cars": 1398,
      "transpare": 1399,
      "psychologists": 1400,
      "llege": 1401,
      "signific": 1402,
      "supply": 1403,
      "replication": 1404,
      "cataly": 1405,
      "purpo": 1406,
      "infrastructure": 1407,
      "experiences": 1408,
      "forever": 1409,
      "greenhouse": 1410,
      "history": 1411,
      "lantis": 1412,
      "nanotechnology": 1413,
      "visionaries": 1414,
      "charge": 1415,
      "customer": 1416,
      "ambiguous": 1417,
      "Atlantis": 1418,
      "nervous": 1419,
      "vampire": 1420,
      "inspired": 1421,
      "relax": 1422,
      "entertainment": 1423,
      "overburdened": 1424,
      "Banger": 1425,
      "Co": 1426,
      "FG": 1427,
      "First": 1428,
      "Gra": 1429,
      "GFG": 1430,
      "Har": 1431,
      "Po": 1432,
      "Pad": 1433,
      "Priya": 1434,
      "Ro": 1435,
      "cing": 1436,
      "cal": 1437,
      "cted": 1438,
      "ek": 1439,
      "ets": 1440,
      "gges": 1441,
      "han": 1442,
      "ide": 1443,
      "jo": 1444,
      "jour": 1445,
      "kine": 1446,
      "kary": 1447,
      "now": 1448,
      "ncy": 1449,
      "nature": 1450,
      "otic": 1451,
      "pion": 1452,
      "phi": 1453,
      "ru": 1454,
      "sad": 1455,
      "ues": 1456,
      "unt": 1457,
      "uous": 1458,
      "vale": 1459,
      "ination": 1460,
      "inate": 1461,
      "ators": 1462,
      "ought": 1463,
      "memor": 1464,
      "off": 1465,
      "tig": 1466,
      "ission": 1467,
      "istry": 1468,
      "arhe": 1469,
      "ands": 1470,
      "promote": 1471,
      "coll": 1472,
      "forts": 1473,
      "loso": 1474,
      "acy": 1475,
      "among": 1476,
      "abor": 1477,
      "week": 1478,
      "conne": 1479,
      "aptic": 1480,
      "agne": 1481,
      "cred": 1482,
      "sub": 1483,
      "sugges": 1484,
      "user": 1485,
      "working": 1486,
      "right": 1487,
      "fai": 1488,
      "efforts": 1489,
      "processes": 1490,
      "chemistry": 1491,
      "Government": 1492,
      "ctrom": 1493,
      "boo": 1494,
      "boost": 1495,
      "give": 1496,
      "assistants": 1497,
      "brought": 1498,
      "speak": 1499,
      "spearhe": 1500,
      "humans": 1501,
      "geologists": 1502,
      "full": 1503,
      "gra": 1504,
      "planets": 1505,
      "culate": 1506,
      "hip": 1507,
      "transformation": 1508,
      "synaptic": 1509,
      "electrom": 1510,
      "cycle": 1511,
      "telepath": 1512,
      "telekine": 1513,
      "allel": 1514,
      "solar": 1515,
      "responses": 1516,
      "parallel": 1517,
      "transmission": 1518,
      "mitig": 1519,
      "science": 1520,
      "repair": 1521,
      "market": 1522,
      "marketing": 1523,
      "aded": 1524,
      "magical": 1525,
      "objects": 1526,
      "prevent": 1527,
      "transport": 1528,
      "psychic": 1529,
      "continent": 1530,
      "continuous": 1531,
      "clouds": 1532,
      "digital": 1533,
      "formulating": 1534,
      "automation": 1535,
      "robotics": 1536,
      "optimiz": 1537,
      "masterminds": 1538,
      "occur": 1539,
      "rainb": 1540,
      "trends": 1541,
      "understand": 1542,
      "events": 1543,
      "regulate": 1544,
      "Mayur": 1545,
      "mapriya": 1546,
      "significance": 1547,
      "Bangera": 1548,
      "College": 1549,
      "Grade": 1550,
      "GFGC": 1551,
      "Harry": 1552,
      "Potter": 1553,
      "Padmapriya": 1554,
      "Rohan": 1555,
      "calculate": 1556,
      "karyotic": 1557,
      "philoso": 1558,
      "memory": 1559,
      "weekend": 1560,
      "spearheaded": 1561,
      "electromagne": 1562,
      "telekinetic": 1563,
      "Are": 1564,
      "Sh": 1565,
      "ather": 1566,
      "ba": 1567,
      "cli": 1568,
      "cines": 1569,
      "ep": 1570,
      "econ": 1571,
      "emb": 1572,
      "eases": 1573,
      "ff": 1574,
      "fli": 1575,
      "gal": 1576,
      "hal": 1577,
      "low": 1578,
      "lines": 1579,
      "lands": 1580,
      "matter": 1581,
      "non": 1582,
      "nitu": 1583,
      "ox": 1584,
      "pH": 1585,
      "sid": 1586,
      "stical": 1587,
      "tar": 1588,
      "tage": 1589,
      "ut": 1590,
      "uish": 1591,
      "vis": 1592,
      "wo": 1593,
      "wing": 1594,
      "xie": 1595,
      "anything": 1596,
      "anxie": 1597,
      "rece": 1598,
      "redu": 1599,
      "remote": 1600,
      "tent": 1601,
      "meth": 1602,
      "mech": 1603,
      "ord": 1604,
      "orig": 1605,
      "legen": 1606,
      "iso": 1607,
      "encour": 1608,
      "sting": 1609,
      "stal": 1610,
      "story": 1611,
      "eld": 1612,
      "els": 1613,
      "chlor": 1614,
      "icy": 1615,
      "ices": 1616,
      "icine": 1617,
      "proje": 1618,
      "ded": 1619,
      "looking": 1620,
      "yourself": 1621,
      "uncover": 1622,
      "plas": 1623,
      "plant": 1624,
      "plans": 1625,
      "weather": 1626,
      "consid": 1627,
      "trust": 1628,
      "agend": 1629,
      "creators": 1630,
      "mystical": 1631,
      "rid": 1632,
      "ult": 1633,
      "tinguish": 1634,
      "diseases": 1635,
      "need": 1636,
      "asis": 1637,
      "strugg": 1638,
      "appear": 1639,
      "starting": 1640,
      "focus": 1641,
      "improvement": 1642,
      "resources": 1643,
      "humanity": 1644,
      "medicine": 1645,
      "grow": 1646,
      "grap": 1647,
      "planet": 1648,
      "iling": 1649,
      "ille": 1650,
      "class": 1651,
      "biochemical": 1652,
      "ostasis": 1653,
      "faces": 1654,
      "homeostasis": 1655,
      "explo": 1656,
      "busy": 1657,
      "brains": 1658,
      "crime": 1659,
      "deadlines": 1660,
      "challenging": 1661,
      "benefit": 1662,
      "metals": 1663,
      "finance": 1664,
      "analyze": 1665,
      "engineers": 1666,
      "engineering": 1667,
      "discovering": 1668,
      "brid": 1669,
      "diges": 1670,
      "formula": 1671,
      "automatic": 1672,
      "writing": 1673,
      "break": 1674,
      "cape": 1675,
      "nutr": 1676,
      "fireworks": 1677,
      "crystal": 1678,
      "employee": 1679,
      "predict": 1680,
      "furnitu": 1681,
      "universes": 1682,
      "summon": 1683,
      "molecul": 1684,
      "circul": 1685,
      "special": 1686,
      "vaccines": 1687,
      "transparency": 1688,
      "purposes": 1689,
      "joy": 1690,
      "journey": 1691,
      "pione": 1692,
      "credited": 1693,
      "suggestions": 1694,
      "books": 1695,
      "transportation": 1696,
      "rainbows": 1697,
      "flies": 1698,
      "landscape": 1699,
      "anxiety": 1700,
      "recei": 1701,
      "mechan": 1702,
      "legend": 1703,
      "considerations": 1704,
      "agenda": 1705,
      "struggling": 1706,
      "furniture": 1707,
      "'?": 1708,
      "Big": 1709,
      "City": 1710,
      "Lo": 1711,
      "Lord": 1712,
      "Mu": 1713,
      "Men": 1714,
      "Night": 1715,
      "Rings": 1716,
      "Star": 1717,
      "Te": 1718,
      "Tre": 1719,
      "Tro": 1720,
      "Tell": 1721,
      "Udu": 1722,
      "blo": 1723,
      "bir": 1724,
      "bances": 1725,
      "bhal": 1726,
      "ck": 1727,
      "clo": 1728,
      "dou": 1729,
      "don": 1730,
      "dress": 1731,
      "dra": 1732,
      "danger": 1733,
      "evi": 1734,
      "each": 1735,
      "gun": 1736,
      "hack": 1737,
      "hift": 1738,
      "ities": 1739,
      "ious": 1740,
      "kour": 1741,
      "ler": 1742,
      "lli": 1743,
      "lar": 1744,
      "lgi": 1745,
      "labor": 1746,
      "ming": 1747,
      "mountain": 1748,
      "mut": 1749,
      "nout": 1750,
      "os": 1751,
      "pere": 1752,
      "pres": 1753,
      "pend": 1754,
      "rout": 1755,
      "rad": 1756,
      "rapp": 1757,
      "sun": 1758,
      "sabo": 1759,
      "simple": 1760,
      "tam": 1761,
      "uce": 1762,
      "ustr": 1763,
      "vy": 1764,
      "wler": 1765,
      "xin": 1766,
      "ins": 1767,
      "inst": 1768,
      "infe": 1769,
      "inher": 1770,
      "infect": 1771,
      "atus": 1772,
      "atitu": 1773,
      "rest": 1774,
      "recreation": 1775,
      "regener": 1776,
      "recogn": 1777,
      "recharge": 1778,
      "oun": 1779,
      "onic": 1780,
      "meal": 1781,
      "measure": 1782,
      "metric": 1783,
      "eshift": 1784,
      "eries": 1785,
      "lives": 1786,
      "litical": 1787,
      "tight": 1788,
      "tism": 1789,
      "topes": 1790,
      "toxin": 1791,
      "roo": 1792,
      "ross": 1793,
      "alright": 1794,
      "stunt": 1795,
      "stination": 1796,
      "ars": 1797,
      "aratus": 1798,
      "ches": 1799,
      "ions": 1800,
      "itance": 1801,
      "procra": 1802,
      "cope": 1803,
      "colle": 1804,
      "cock": 1805,
      "dev": 1806,
      "deal": 1807,
      "deci": 1808,
      "across": 1809,
      "ambhal": 1810,
      "aboration": 1811,
      "pop": 1812,
      "political": 1813,
      "weap": 1814,
      "sphere": 1815,
      "terms": 1816,
      "agues": 1817,
      "vities": 1818,
      "industr": 1819,
      "ership": 1820,
      "creating": 1821,
      "somes": 1822,
      "something": 1823,
      "exc": 1824,
      "exis": 1825,
      "movi": 1826,
      "mosis": 1827,
      "operations": 1828,
      "manip": 1829,
      "myster": 1830,
      "rial": 1831,
      "fake": 1832,
      "fauce": 1833,
      "every": 1834,
      "cities": 1835,
      "ghting": 1836,
      "distur": 1837,
      "disappear": 1838,
      "developing": 1839,
      "idation": 1840,
      "identi": 1841,
      "angels": 1842,
      "sives": 1843,
      "effects": 1844,
      "apparatus": 1845,
      "ficult": 1846,
      "queries": 1847,
      "hea": 1848,
      "local": 1849,
      "Golgi": 1850,
      "bother": 1851,
      "book": 1852,
      "difficult": 1853,
      "chemicals": 1854,
      "prayer": 1855,
      "pests": 1856,
      "gratitu": 1857,
      "dence": 1858,
      "upset": 1859,
      "vol": 1860,
      "changing": 1861,
      "interesting": 1862,
      "genetics": 1863,
      "cure": 1864,
      "money": 1865,
      "cyto": 1866,
      "ecosystem": 1867,
      "ecologists": 1868,
      "confid": 1869,
      "biometric": 1870,
      "causes": 1871,
      "activities": 1872,
      "shapeshift": 1873,
      "expe": 1874,
      "organisms": 1875,
      "parkour": 1876,
      "mension": 1877,
      "drones": 1878,
      "guid": 1879,
      "ancial": 1880,
      "manufacture": 1881,
      "carbon": 1882,
      "surr": 1883,
      "practices": 1884,
      "finances": 1885,
      "financial": 1886,
      "really": 1887,
      "period": 1888,
      "magic": 1889,
      "brilli": 1890,
      "burnout": 1891,
      "fermentation": 1892,
      "signals": 1893,
      "topics": 1894,
      "support": 1895,
      "ryonic": 1896,
      "wrong": 1897,
      "course": 1898,
      "crawler": 1899,
      "dimension": 1900,
      "numb": 1901,
      "celebration": 1902,
      "celebrate": 1903,
      "predictive": 1904,
      "evade": 1905,
      "drugs": 1906,
      "inclusion": 1907,
      "vehicle": 1908,
      "electrons": 1909,
      "habit": 1910,
      "happen": 1911,
      "pleasure": 1912,
      "whispere": 1913,
      "valence": 1914,
      "collaboration": 1915,
      "connect": 1916,
      "gravity": 1917,
      "telepathy": 1918,
      "optimizing": 1919,
      "philosophy": 1920,
      "weekends": 1921,
      "electromagnetism": 1922,
      "Shambhal": 1923,
      "econom": 1924,
      "embryonic": 1925,
      "oxidation": 1926,
      "method": 1927,
      "originate": 1928,
      "isotopes": 1929,
      "encourage": 1930,
      "project": 1931,
      "planetary": 1932,
      "illegal": 1933,
      "classif": 1934,
      "explosives": 1935,
      "digestion": 1936,
      "molecular": 1937,
      "circulatory": 1938,
      "legendary": 1939,
      "Nightcrawler": 1940,
      "Team": 1941,
      "Trek": 1942,
      "Troy": 1943,
      "Udupi": 1944,
      "blood": 1945,
      "bird": 1946,
      "drawing": 1947,
      "dangerous": 1948,
      "evidence": 1949,
      "osmosis": 1950,
      "pendulum": 1951,
      "routine": 1952,
      "rapport": 1953,
      "sabotage": 1954,
      "tamper": 1955,
      "inheritance": 1956,
      "recreational": 1957,
      "stunts": 1958,
      "procrastination": 1959,
      "colleagues": 1960,
      "cocktail": 1961,
      "weapon": 1962,
      "industry": 1963,
      "manipulate": 1964,
      "mysterious": 1965,
      "faucet": 1966,
      "disturbances": 1967,
      "disappearances": 1968,
      "identity": 1969,
      "bothering": 1970,
      "gratitude": 1971,
      "whisperer": 1972,
      "Shambhala": 1973,
      "Bang": 1974,
      "Mon": 1975,
      "Ness": 1976,
      "ado": 1977,
      "aste": 1978,
      "aves": 1979,
      "bas": 1980,
      "bla": 1981,
      "bicy": 1982,
      "cel": 1983,
      "din": 1984,
      "dre": 1985,
      "ding": 1986,
      "dro": 1987,
      "dar": 1988,
      "dance": 1989,
      "eu": 1990,
      "eating": 1991,
      "fit": 1992,
      "fri": 1993,
      "gases": 1994,
      "har": 1995,
      "hun": 1996,
      "ile": 1997,
      "ivity": 1998,
      "lon": 1999,
      "less": 2000,
      "lph": 2001,
      "mul": 2002,
      "ng": 2003,
      "ntic": 2004,
      "por": 2005,
      "ping": 2006,
      "pto": 2007,
      "rates": 2008,
      "sto": 2009,
      "sle": 2010,
      "sen": 2011,
      "scre": 2012,
      "stim": 2013,
      "snow": 2014,
      "tting": 2015,
      "table": 2016,
      "tree": 2017,
      "uli": 2018,
      "vat": 2019,
      "zers": 2020,
      "instru": 2021,
      "though": 2022,
      "atmo": 2023,
      "ancing": 2024,
      "retic": 2025,
      "retail": 2026,
      "recover": 2027,
      "reproduction": 2028,
      "recent": 2029,
      "they": 2030,
      "thentic": 2031,
      "mess": 2032,
      "mera": 2033,
      "orms": 2034,
      "estial": 2035,
      "offer": 2036,
      "lex": 2037,
      "leaking": 2038,
      "rome": 2039,
      "ise": 2040,
      "alk": 2041,
      "enable": 2042,
      "dog": 2043,
      "dolph": 2044,
      "stack": 2045,
      "states": 2046,
      "che": 2047,
      "icists": 2048,
      "proce": 2049,
      "cosm": 2050,
      "colon": 2051,
      "teles": 2052,
      "demo": 2053,
      "detect": 2054,
      "decode": 2055,
      "forman": 2056,
      "loved": 2057,
      "ateboard": 2058,
      "solu": 2059,
      "ams": 2060,
      "poly": 2061,
      "poster": 2062,
      "consum": 2063,
      "content": 2064,
      "tru": 2065,
      "trace": 2066,
      "trater": 2067,
      "spend": 2068,
      "apart": 2069,
      "aged": 2070,
      "agree": 2071,
      "immer": 2072,
      "imposter": 2073,
      "usivity": 2074,
      "teams": 2075,
      "exother": 2076,
      "extrater": 2077,
      "ries": 2078,
      "rious": 2079,
      "ulation": 2080,
      "noble": 2081,
      "father": 2082,
      "synd": 2083,
      "address": 2084,
      "discourse": 2085,
      "disagree": 2086,
      "share": 2087,
      "ticles": 2088,
      "performan": 2089,
      "sive": 2090,
      "handling": 2091,
      "quality": 2092,
      "started": 2093,
      "government": 2094,
      "holes": 2095,
      "implications": 2096,
      "intelligent": 2097,
      "but": 2098,
      "tenance": 2099,
      "bots": 2100,
      "differ": 2101,
      "giants": 2102,
      "thermic": 2103,
      "ility": 2104,
      "skateboard": 2105,
      "medical": 2106,
      "entangle": 2107,
      "ization": 2108,
      "field": 2109,
      "fighting": 2110,
      "geo": 2111,
      "actions": 2112,
      "auton": 2113,
      "authentic": 2114,
      "maintenance": 2115,
      "votal": 2116,
      "ilbla": 2117,
      "cultiv": 2118,
      "translat": 2119,
      "product": 2120,
      "geneous": 2121,
      "treating": 2122,
      "curious": 2123,
      "omous": 2124,
      "ecological": 2125,
      "biological": 2126,
      "cracy": 2127,
      "solve": 2128,
      "question": 2129,
      "activity": 2130,
      "hered": 2131,
      "interpre": 2132,
      "interfaces": 2133,
      "underground": 2134,
      "ball": 2135,
      "pivotal": 2136,
      "particles": 2137,
      "akes": 2138,
      "respiratory": 2139,
      "trailbla": 2140,
      "achievements": 2141,
      "endoplas": 2142,
      "endothermic": 2143,
      "surface": 2144,
      "neuroscientists": 2145,
      "businesses": 2146,
      "electric": 2147,
      "technical": 2148,
      "latest": 2149,
      "robots": 2150,
      "optimize": 2151,
      "implementation": 2152,
      "capabilities": 2153,
      "faced": 2154,
      "crypto": 2155,
      "further": 2156,
      "musical": 2157,
      "save": 2158,
      "universal": 2159,
      "equations": 2160,
      "inclusivity": 2161,
      "vehicles": 2162,
      "physicists": 2163,
      "recipes": 2164,
      "leadership": 2165,
      "issue": 2166,
      "issues": 2167,
      "civilization": 2168,
      "civilizations": 2169,
      "catalyst": 2170,
      "ideas": 2171,
      "subatomic": 2172,
      "fairies": 2173,
      "mitigate": 2174,
      "clients": 2175,
      "reduction": 2176,
      "nutri": 2177,
      "pioneers": 2178,
      "Loch": 2179,
      "mountains": 2180,
      "mutations": 2181,
      "instant": 2182,
      "restrial": 2183,
      "recognition": 2184,
      "ounded": 2185,
      "decide": 2186,
      "exciting": 2187,
      "everyday": 2188,
      "heavy": 2189,
      "confidence": 2190,
      "expected": 2191,
      "periodic": 2192,
      "number": 2193,
      "happening": 2194,
      "Monster": 2195,
      "bicycle": 2196,
      "celestial": 2197,
      "eukaryotic": 2198,
      "fitness": 2199,
      "friend": 2200,
      "harness": 2201,
      "sleep": 2202,
      "screen": 2203,
      "stimuli": 2204,
      "instrument": 2205,
      "thoughts": 2206,
      "atmosphere": 2207,
      "reticulum": 2208,
      "merase": 2209,
      "dolphins": 2210,
      "proceed": 2211,
      "cosmic": 2212,
      "democracy": 2213,
      "polymerase": 2214,
      "consumption": 2215,
      "traceability": 2216,
      "immersive": 2217,
      "exothermic": 2218,
      "extraterrestrial": 2219,
      "syndrome": 2220,
      "performance": 2221,
      "entanglement": 2222,
      "autonomous": 2223,
      "authentication": 2224,
      "cultivate": 2225,
      "trailblazers": 2226,
      "endoplasmic": 2227,
      "ID": 2228,
      "Ou": 2229,
      "ave": 2230,
      "aud": 2231,
      "aspe": 2232,
      "asts": 2233,
      "bl": 2234,
      "bs": 2235,
      "bt": 2236,
      "ban": 2237,
      "bby": 2238,
      "bates": 2239,
      "cor": 2240,
      "cam": 2241,
      "cture": 2242,
      "dcast": 2243,
      "ech": 2244,
      "earth": 2245,
      "emer": 2246,
      "epi": 2247,
      "flo": 2248,
      "flu": 2249,
      "fact": 2250,
      "free": 2251,
      "fla": 2252,
      "flat": 2253,
      "fountain": 2254,
      "gri": 2255,
      "hers": 2256,
      "hang": 2257,
      "hust": 2258,
      "ij": 2259,
      "ior": 2260,
      "ied": 2261,
      "ians": 2262,
      "itive": 2263,
      "iuses": 2264,
      "jum": 2265,
      "kes": 2266,
      "kis": 2267,
      "kid": 2268,
      "kines": 2269,
      "lf": 2270,
      "lation": 2271,
      "layer": 2272,
      "mph": 2273,
      "mater": 2274,
      "night": 2275,
      "oz": 2276,
      "opl": 2277,
      "oplanets": 2278,
      "osomes": 2279,
      "pen": 2280,
      "pain": 2281,
      "press": 2282,
      "patter": 2283,
      "rib": 2284,
      "rane": 2285,
      "son": 2286,
      "sim": 2287,
      "show": 2288,
      "tors": 2289,
      "ure": 2290,
      "uti": 2291,
      "ution": 2292,
      "val": 2293,
      "wer": 2294,
      "wri": 2295,
      "waves": 2296,
      "inves": 2297,
      "invol": 2298,
      "thro": 2299,
      "three": 2300,
      "thunderst": 2301,
      "atch": 2302,
      "atial": 2303,
      "anthro": 2304,
      "ref": 2305,
      "redo": 2306,
      "tem": 2307,
      "tet": 2308,
      "tears": 2309,
      "ons": 2310,
      "ont": 2311,
      "ony": 2312,
      "onance": 2313,
      "onents": 2314,
      "youth": 2315,
      "metry": 2316,
      "orn": 2317,
      "orches": 2318,
      "ese": 2319,
      "lized": 2320,
      "leus": 2321,
      "leak": 2322,
      "rop": 2323,
      "roid": 2324,
      "room": 2325,
      "istinguish": 2326,
      "icill": 2327,
      "promo": 2328,
      "progr": 2329,
      "prokaryotic": 2330,
      "color": 2331,
      "coding": 2332,
      "dete": 2333,
      "debates": 2334,
      "formed": 2335,
      "load": 2336,
      "sea": 2337,
      "secure": 2338,
      "activ": 2339,
      "acade": 2340,
      "amming": 2341,
      "uninspired": 2342,
      "unities": 2343,
      "unexpected": 2344,
      "poll": 2345,
      "pologists": 2346,
      "polar": 2347,
      "podcast": 2348,
      "consci": 2349,
      "concer": 2350,
      "trip": 2351,
      "spatial": 2352,
      "menting": 2353,
      "terra": 2354,
      "immor": 2355,
      "imary": 2356,
      "indistinguish": 2357,
      "lling": 2358,
      "teamwork": 2359,
      "exoplanets": 2360,
      "most": 2361,
      "moment": 2362,
      "opport": 2363,
      "ophy": 2364,
      "hello": 2365,
      "fash": 2366,
      "geniuses": 2367,
      "symph": 2368,
      "disaster": 2369,
      "distinguish": 2370,
      "shed": 2371,
      "dude": 2372,
      "membrane": 2373,
      "percent": 2374,
      "sition": 2375,
      "irical": 2376,
      "quakes": 2377,
      "got": 2378,
      "heli": 2379,
      "heard": 2380,
      "ials": 2381,
      "hobby": 2382,
      "viral": 2383,
      "chemists": 2384,
      "maid": 2385,
      "ctions": 2386,
      "things": 2387,
      "butter": 2388,
      "lures": 2389,
      "luence": 2390,
      "tence": 2391,
      "giving": 2392,
      "answer": 2393,
      "complex": 2394,
      "components": 2395,
      "ilibri": 2396,
      "primary": 2397,
      "resonance": 2398,
      "ousness": 2399,
      "werewo": 2400,
      "times": 2401,
      "studying": 2402,
      "integr": 2403,
      "high": 2404,
      "staying": 2405,
      "transcri": 2406,
      "translation": 2407,
      "treat": 2408,
      "treasure": 2409,
      "cule": 2410,
      "functions": 2411,
      "stressful": 2412,
      "services": 2413,
      "drive": 2414,
      "feelings": 2415,
      "cles": 2416,
      "mermaid": 2417,
      "fostering": 2418,
      "Anything": 2419,
      "smart": 2420,
      "smiling": 2421,
      "organs": 2422,
      "curre": 2423,
      "conflicting": 2424,
      "interactions": 2425,
      "interior": 2426,
      "superpowers": 2427,
      "organize": 2428,
      "party": 2429,
      "task": 2430,
      "discussions": 2431,
      "iotic": 2432,
      "iobooks": 2433,
      "immunity": 2434,
      "custom": 2435,
      "tiny": 2436,
      "transition": 2437,
      "computers": 2438,
      "pets": 2439,
      "controlling": 2440,
      "realms": 2441,
      "magne": 2442,
      "empirical": 2443,
      "organization": 2444,
      "teleportation": 2445,
      "oceans": 2446,
      "topic": 2447,
      "nucleus": 2448,
      "implementing": 2449,
      "replicate": 2450,
      "breaking": 2451,
      "pursu": 2452,
      "influence": 2453,
      "ready": 2454,
      "fireflies": 2455,
      "groundbreaking": 2456,
      "evances": 2457,
      "music": 2458,
      "octet": 2459,
      "raindro": 2460,
      "trending": 2461,
      "equilibri": 2462,
      "neys": 2463,
      "turn": 2464,
      "molecule": 2465,
      "general": 2466,
      "species": 2467,
      "physical": 2468,
      "habits": 2469,
      "leader": 2470,
      "cognitive": 2471,
      "whispers": 2472,
      "idea": 2473,
      "rule": 2474,
      "failures": 2475,
      "fully": 2476,
      "mitigating": 2477,
      "understanding": 2478,
      "based": 2479,
      "chloropl": 2480,
      "chlorophy": 2481,
      "growth": 2482,
      "graphy": 2483,
      "graphers": 2484,
      "received": 2485,
      "mechanics": 2486,
      "mechanisms": 2487,
      "doubt": 2488,
      "radio": 2489,
      "infections": 2490,
      "regeneration": 2491,
      "devices": 2492,
      "existence": 2493,
      "movies": 2494,
      "cytokines": 2495,
      "guidance": 2496,
      "surrounded": 2497,
      "brilliance": 2498,
      "dimensions": 2499,
      "habitable": 2500,
      "economists": 2501,
      "classify": 2502,
      "birds": 2503,
      "asteroid": 2504,
      "basic": 2505,
      "dream": 2506,
      "dark": 2507,
      "hunter": 2508,
      "multi": 2509,
      "sense": 2510,
      "snowfla": 2511,
      "messages": 2512,
      "cheese": 2513,
      "colonize": 2514,
      "truth": 2515,
      "addressing": 2516,
      "disagreements": 2517,
      "geographers": 2518,
      "translators": 2519,
      "heredity": 2520,
      "cryptography": 2521,
      "nutrients": 2522,
      "Ouij": 2523,
      "audiobooks": 2524,
      "aspects": 2525,
      "black": 2526,
      "earthquakes": 2527,
      "emerging": 2528,
      "epigenetics": 2529,
      "fluff": 2530,
      "factors": 2531,
      "grievances": 2532,
      "hustle": 2533,
      "kisses": 2534,
      "kidneys": 2535,
      "materials": 2536,
      "ozone": 2537,
      "penicill": 2538,
      "paint": 2539,
      "pressure": 2540,
      "patterns": 2541,
      "ribosomes": 2542,
      "utilized": 2543,
      "write": 2544,
      "investing": 2545,
      "involved": 2546,
      "thunderstorms": 2547,
      "anthropologists": 2548,
      "redox": 2549,
      "orchestr": 2550,
      "leaky": 2551,
      "promoting": 2552,
      "activation": 2553,
      "academic": 2554,
      "pollution": 2555,
      "podcasts": 2556,
      "consciousness": 2557,
      "concerns": 2558,
      "terraform": 2559,
      "indistinguishable": 2560,
      "opportunities": 2561,
      "fashion": 2562,
      "symphony": 2563,
      "butterflies": 2564,
      "werewolf": 2565,
      "transcription": 2566,
      "raindrops": 2567,
      "equilibrium": 2568,
      "chloroplasts": 2569,
      "chlorophyll": 2570,
      "snowflakes": 2571,
      "Ouija": 2572,
      "penicillin": 2573,
      "5G": 2574,
      "AT": 2575,
      "Avat": 2576,
      "Dor": 2577,
      "Dop": 2578,
      "Did": 2579,
      "El": 2580,
      "Easter": 2581,
      "Gib": 2582,
      "Ho": 2583,
      "Io": 2584,
      "Li": 2585,
      "Lew": 2586,
      "Mars": 2587,
      "Par": 2588,
      "TV": 2589,
      "Th": 2590,
      "Were": 2591,
      "Want": 2592,
      "aw": 2593,
      "aer": 2594,
      "ast": 2595,
      "ake": 2596,
      "away": 2597,
      "bou": 2598,
      "bow": 2599,
      "bab": 2600,
      "bound": 2601,
      "blog": 2602,
      "bility": 2603,
      "cting": 2604,
      "cks": 2605,
      "card": 2606,
      "count": 2607,
      "crop": 2608,
      "dor": 2609,
      "dam": 2610,
      "dable": 2611,
      "done": 2612,
      "dancing": 2613,
      "eg": 2614,
      "eat": 2615,
      "eve": 2616,
      "eath": 2617,
      "etry": 2618,
      "fl": 2619,
      "fam": 2620,
      "fant": 2621,
      "fra": 2622,
      "fence": 2623,
      "fish": 2624,
      "first": 2625,
      "fru": 2626,
      "flow": 2627,
      "gl": 2628,
      "gs": 2629,
      "ger": 2630,
      "gli": 2631,
      "gro": 2632,
      "glo": 2633,
      "gical": 2634,
      "gour": 2635,
      "gativity": 2636,
      "glim": 2637,
      "glow": 2638,
      "groo": 2639,
      "hap": 2640,
      "has": 2641,
      "hous": 2642,
      "hroo": 2643,
      "ire": 2644,
      "iti": 2645,
      "ich": 2646,
      "iation": 2647,
      "iers": 2648,
      "ield": 2649,
      "jok": 2650,
      "job": 2651,
      "jugg": 2652,
      "kind": 2653,
      "lin": 2654,
      "lap": 2655,
      "lting": 2656,
      "mate": 2657,
      "mass": 2658,
      "mil": 2659,
      "mines": 2660,
      "mall": 2661,
      "ner": 2662,
      "nex": 2663,
      "nted": 2664,
      "oo": 2665,
      "ome": 2666,
      "oloc": 2667,
      "oms": 2668,
      "osa": 2669,
      "pine": 2670,
      "pass": 2671,
      "pati": 2672,
      "pill": 2673,
      "ploy": 2674,
      "row": 2675,
      "ray": 2676,
      "rup": 2677,
      "rong": 2678,
      "sthe": 2679,
      "sch": 2680,
      "sit": 2681,
      "say": 2682,
      "spo": 2683,
      "swi": 2684,
      "ske": 2685,
      "session": 2686,
      "tt": 2687,
      "tw": 2688,
      "tch": 2689,
      "tation": 2690,
      "tong": 2691,
      "ttom": 2692,
      "tacks": 2693,
      "torn": 2694,
      "ue": 2695,
      "uri": 2696,
      "ued": 2697,
      "uff": 2698,
      "vitation": 2699,
      "winter": 2700,
      "wish": 2701,
      "walk": 2702,
      "watch": 2703,
      "xture": 2704,
      "yon": 2705,
      "yield": 2706,
      "ining": 2707,
      "ints": 2708,
      "insu": 2709,
      "income": 2710,
      "incor": 2711,
      "initi": 2712,
      "ths": 2713,
      "ats": 2714,
      "atbots": 2715,
      "atoms": 2716,
      "attacks": 2717,
      "aning": 2718,
      "another": 2719,
      "anches": 2720,
      "anions": 2721,
      "ren": 2722,
      "reli": 2723,
      "rect": 2724,
      "react": 2725,
      "reduce": 2726,
      "resur": 2727,
      "replace": 2728,
      "reactivity": 2729,
      "outer": 2730,
      "ouble": 2731,
      "theater": 2732,
      "tero": 2733,
      "ondri": 2734,
      "melting": 2735,
      "meaning": 2736,
      "oring": 2737,
      "orations": 2738,
      "orical": 2739,
      "order": 2740,
      "estro": 2741,
      "eship": 2742,
      "ertive": 2743,
      "liter": 2744,
      "liday": 2745,
      "lish": 2746,
      "lieve": 2747,
      "litt": 2748,
      "tire": 2749,
      "tivity": 2750,
      "tides": 2751,
      "leton": 2752,
      "lented": 2753,
      "rob": 2754,
      "road": 2755,
      "roorganisms": 2756,
      "rocks": 2757,
      "isn": 2758,
      "already": 2759,
      "ene": 2760,
      "enjoy": 2761,
      "sty": 2762,
      "stor": 2763,
      "stres": 2764,
      "stree": 2765,
      "stances": 2766,
      "stake": 2767,
      "stuff": 2768,
      "arms": 2769,
      "arking": 2770,
      "ely": 2771,
      "elves": 2772,
      "child": 2773,
      "chatbots": 2774,
      "chondri": 2775,
      "itate": 2776,
      "itoring": 2777,
      "ick": 2778,
      "projects": 2779,
      "prosthe": 2780,
      "copes": 2781,
      "cooking": 2782,
      "covale": 2783,
      "dem": 2784,
      "degr": 2785,
      "deep": 2786,
      "deploy": 2787,
      "force": 2788,
      "fordable": 2789,
      "love": 2790,
      "logo": 2791,
      "Inter": 2792,
      "fetch": 2793,
      "ainst": 2794,
      "ateful": 2795,
      "beau": 2796,
      "beams": 2797,
      "beyon": 2798,
      "believe": 2799,
      "versi": 2800,
      "seam": 2801,
      "semb": 2802,
      "sequ": 2803,
      "sosomes": 2804,
      "acts": 2805,
      "access": 2806,
      "active": 2807,
      "account": 2808,
      "aciers": 2809,
      "aceship": 2810,
      "unic": 2811,
      "unlim": 2812,
      "unmotivated": 2813,
      "pler": 2814,
      "pline": 2815,
      "poetry": 2816,
      "points": 2817,
      "construc": 2818,
      "constru": 2819,
      "contem": 2820,
      "tutors": 2821,
      "trouble": 2822,
      "spill": 2823,
      "spicy": 2824,
      "spont": 2825,
      "sparking": 2826,
      "spaceship": 2827,
      "tern": 2828,
      "agno": 2829,
      "against": 2830,
      "implants": 2831,
      "vibe": 2832,
      "creatu": 2833,
      "white": 2834,
      "while": 2835,
      "such": 2836,
      "extin": 2837,
      "word": 2838,
      "ked": 2839,
      "mod": 2840,
      "mood": 2841,
      "moments": 2842,
      "molar": 2843,
      "mogeneous": 2844,
      "mant": 2845,
      "ibility": 2846,
      "workload": 2847,
      "days": 2848,
      "edul": 2849,
      "ulating": 2850,
      "inking": 2851,
      "thinking": 2852,
      "genes": 2853,
      "genie": 2854,
      "genome": 2855,
      "symb": 2856,
      "ctic": 2857,
      "ctious": 2858,
      "effic": 2859,
      "adable": 2860,
      "adows": 2861,
      "cipline": 2862,
      "disgu": 2863,
      "disrup": 2864,
      "discipline": 2865,
      "neur": 2866,
      "shop": 2867,
      "shee": 2868,
      "shmall": 2869,
      "shadows": 2870,
      "astic": 2871,
      "assemb": 2872,
      "strong": 2873,
      "size": 2874,
      "ircu": 2875,
      "technological": 2876,
      "alities": 2877,
      "align": 2878,
      "urs": 2879,
      "comet": 2880,
      "apping": 2881,
      "appreci": 2882,
      "quire": 2883,
      "hetero": 2884,
      "hectic": 2885,
      "lysosomes": 2886,
      "communities": 2887,
      "handled": 2888,
      "holiday": 2889,
      "homogeneous": 2890,
      "viruses": 2891,
      "uck": 2892,
      "assertive": 2893,
      "haunt": 2894,
      "haircu": 2895,
      "maestro": 2896,
      "impuri": 2897,
      "impacts": 2898,
      "bud": 2899,
      "buy": 2900,
      "lumines": 2901,
      "news": 2902,
      "formal": 2903,
      "boiling": 2904,
      "bottom": 2905,
      "companions": 2906,
      "talented": 2907,
      "brand": 2908,
      "branches": 2909,
      "prise": 2910,
      "pses": 2911,
      "speed": 2912,
      "spectr": 2913,
      "meditate": 2914,
      "mindset": 2915,
      "tains": 2916,
      "fight": 2917,
      "grant": 2918,
      "grateful": 2919,
      "voting": 2920,
      "playground": 2921,
      "ounding": 2922,
      "seltong": 2923,
      "transform": 2924,
      "produce": 2925,
      "ards": 2926,
      "functionalities": 2927,
      "monitoring": 2928,
      "element": 2929,
      "elevat": 2930,
      "onegativity": 2931,
      "career": 2932,
      "finding": 2933,
      "thrown": 2934,
      "limit": 2935,
      "confer": 2936,
      "biodegr": 2937,
      "biolumines": 2938,
      "facing": 2939,
      "facts": 2940,
      "affordable": 2941,
      "smile": 2942,
      "phone": 2943,
      "engaged": 2944,
      "destiny": 2945,
      "shaped": 2946,
      "curtains": 2947,
      "interact": 2948,
      "internet": 2949,
      "intermolecular": 2950,
      "superhuman": 2951,
      "supervis": 2952,
      "beneath": 2953,
      "enhancing": 2954,
      "exams": 2955,
      "know": 2956,
      "menstru": 2957,
      "brainstor": 2958,
      "drift": 2959,
      "drinking": 2960,
      "mixture": 2961,
      "estones": 2962,
      "telling": 2963,
      "background": 2964,
      "iometry": 2965,
      "marine": 2966,
      "marshmall": 2967,
      "tales": 2968,
      "traits": 2969,
      "cultures": 2970,
      "microw": 2971,
      "microorganisms": 2972,
      "entire": 2973,
      "positivity": 2974,
      "wizards": 2975,
      "wonderful": 2976,
      "priorities": 2977,
      "holders": 2978,
      "peace": 2979,
      "entrance": 2980,
      "controversi": 2981,
      "surpass": 2982,
      "surprise": 2983,
      "neuroscience": 2984,
      "overwhelm": 2985,
      "electronegativity": 2986,
      "markets": 2987,
      "ceries": 2988,
      "centric": 2989,
      "obic": 2990,
      "obtain": 2991,
      "determining": 2992,
      "secretly": 2993,
      "organizing": 2994,
      "lately": 2995,
      "insight": 2996,
      "animal": 2997,
      "decorations": 2998,
      "put": 2999,
      "brea": 3000,
      "cats": 3001,
      "division": 3002,
      "diagno": 3003,
      "forest": 3004,
      "mitochondri": 3005,
      "scientific": 3006,
      "employment": 3007,
      "architecture": 3008,
      "great": 3009,
      "historical": 3010,
      "mushroo": 3011,
      "nanobots": 3012,
      "customers": 3013,
      "evening": 3014,
      "regulating": 3015,
      "lightning": 3016,
      "seeking": 3017,
      "circles": 3018,
      "network": 3019,
      "networks": 3020,
      "physics": 3021,
      "hybrid": 3022,
      "happiness": 3023,
      "aneity": 3024,
      "recipe": 3025,
      "tricks": 3026,
      "boxes": 3027,
      "transparent": 3028,
      "catalyze": 3029,
      "catalysts": 3030,
      "purpose": 3031,
      "collabor": 3032,
      "connected": 3033,
      "substances": 3034,
      "gravitation": 3035,
      "transformational": 3036,
      "continental": 3037,
      "optimization": 3038,
      "philosoph": 3039,
      "electromagnetic": 3040,
      "base": 3041,
      "climb": 3042,
      "nonmetals": 3043,
      "visited": 3044,
      "reducing": 3045,
      "storytelling": 3046,
      "growing": 3047,
      "bridge": 3048,
      "bridges": 3049,
      "nutrition": 3050,
      "receive": 3051,
      "closet": 3052,
      "clotting": 3053,
      "double": 3054,
      "present": 3055,
      "presence": 3056,
      "radiation": 3057,
      "sunbeams": 3058,
      "infectious": 3059,
      "regenerative": 3060,
      "device": 3061,
      "population": 3062,
      "existed": 3063,
      "movie": 3064,
      "cytoske": 3065,
      "guiding": 3066,
      "surrounding": 3067,
      "brilliant": 3068,
      "habitats": 3069,
      "classified": 3070,
      "dinner": 3071,
      "dinosa": 3072,
      "porate": 3073,
      "porary": 3074,
      "store": 3075,
      "stoich": 3076,
      "treehouse": 3077,
      "alkali": 3078,
      "telescope": 3079,
      "telescopes": 3080,
      "solubility": 3081,
      "interpretive": 3082,
      "interpretation": 3083,
      "friendly": 3084,
      "sleeping": 3085,
      "bank": 3086,
      "camping": 3087,
      "echoloc": 3088,
      "floating": 3089,
      "jump": 3090,
      "sonar": 3091,
      "simulation": 3092,
      "valued": 3093,
      "programming": 3094,
      "detection": 3095,
      "immortal": 3096,
      "momentum": 3097,
      "disasters": 3098,
      "helix": 3099,
      "treatments": 3100,
      "current": 3101,
      "magnets": 3102,
      "pursuing": 3103,
      "radioactivity": 3104,
      "multiple": 3105,
      "fluffy": 3106,
      "orchestrating": 3107,
      "ATP": 3108,
      "Avatar": 3109,
      "Dorado": 3110,
      "Doppler": 3111,
      "Gibbs": 3112,
      "IoT": 3113,
      "Life": 3114,
      "Lewis": 3115,
      "Parseltong": 3116,
      "Things": 3117,
      "awards": 3118,
      "aerobic": 3119,
      "bounce": 3120,
      "bowl": 3121,
      "boundaries": 3122,
      "cardboard": 3123,
      "dormant": 3124,
      "damaged": 3125,
      "eggs": 3126,
      "flapping": 3127,
      "fantastic": 3128,
      "fruition": 3129,
      "flowers": 3130,
      "glaciers": 3131,
      "glitter": 3132,
      "groceries": 3133,
      "gourmet": 3134,
      "glimpses": 3135,
      "haps": 3136,
      "housing": 3137,
      "jokes": 3138,
      "juggle": 3139,
      "laptop": 3140,
      "milestones": 3141,
      "next": 3142,
      "patient": 3143,
      "pillows": 3144,
      "rays": 3145,
      "schedul": 3146,
      "saying": 3147,
      "swim": 3148,
      "sessions": 3149,
      "wishes": 3150,
      "insulin": 3151,
      "incorporate": 3152,
      "relief": 3153,
      "resurrect": 3154,
      "literacy": 3155,
      "little": 3156,
      "stressed": 3157,
      "street": 3158,
      "stakeholders": 3159,
      "children": 3160,
      "covalent": 3161,
      "deployment": 3162,
      "Internet": 3163,
      "beyond": 3164,
      "seamless": 3165,
      "accountability": 3166,
      "unlimited": 3167,
      "constructive": 3168,
      "contemporary": 3169,
      "spontaneity": 3170,
      "creatures": 3171,
      "extinct": 3172,
      "molarity": 3173,
      "symbiotic": 3174,
      "effici": 3175,
      "disguise": 3176,
      "disruptions": 3177,
      "neurons": 3178,
      "sheep": 3179,
      "assemble": 3180,
      "heterogeneous": 3181,
      "maestros": 3182,
      "impurities": 3183,
      "spectrum": 3184,
      "elevator": 3185,
      "biodegradable": 3186,
      "bioluminescent": 3187,
      "smiley": 3188,
      "supervisors": 3189,
      "menstrual": 3190,
      "microwave": 3191,
      "controversial": 3192,
      "surpasses": 3193,
      "mitochondria": 3194,
      "mushrooms": 3195,
      "hybridization": 3196,
      "collaborate": 3197,
      "cytoskeleton": 3198,
      "dinosaurs": 3199,
      "stoichiometry": 3200,
      "echolocation": 3201,
      "Parseltongue": 3202,
      "schedules": 3203,
      "51": 3204,
      "Avo": 3205,
      "Bon": 3206,
      "Back": 3207,
      "Bru": 3208,
      "Cas": 3209,
      "De": 3210,
      "Dr": 3211,
      "Dy": 3212,
      "Dev": 3213,
      "Eng": 3214,
      "Fu": 3215,
      "For": 3216,
      "Fib": 3217,
      "Fountain": 3218,
      "Has": 3219,
      "Have": 3220,
      "Ill": 3221,
      "Jed": 3222,
      "La": 3223,
      "Lee": 3224,
      "Mend": 3225,
      "Mother": 3226,
      "Nam": 3227,
      "Nice": 3228,
      "Nature": 3229,
      "Ops": 3230,
      "RNA": 3231,
      "Sal": 3232,
      "Sun": 3233,
      "Show": 3234,
      "Sher": 3235,
      "To": 3236,
      "The": 3237,
      "Tru": 3238,
      "ax": 3239,
      "az": 3240,
      "ase": 3241,
      "aid": 3242,
      "aur": 3243,
      "aqu": 3244,
      "bel": 3245,
      "bali": 3246,
      "bles": 3247,
      "bath": 3248,
      "bination": 3249,
      "cof": 3250,
      "cen": 3251,
      "cdo": 3252,
      "cst": 3253,
      "cand": 3254,
      "clu": 3255,
      "cision": 3256,
      "coun": 3257,
      "cturn": 3258,
      "ders": 3259,
      "dant": 3260,
      "diverse": 3261,
      "eting": 3262,
      "ecu": 3263,
      "emotion": 3264,
      "evol": 3265,
      "ecst": 3266,
      "fr": 3267,
      "ft": 3268,
      "fan": 3269,
      "fing": 3270,
      "fal": 3271,
      "fting": 3272,
      "fance": 3273,
      "fell": 3274,
      "found": 3275,
      "fend": 3276,
      "flor": 3277,
      "flex": 3278,
      "founded": 3279,
      "gam": 3280,
      "ged": 3281,
      "gad": 3282,
      "gly": 3283,
      "gating": 3284,
      "grid": 3285,
      "hop": 3286,
      "had": 3287,
      "hors": 3288,
      "ilo": 3289,
      "igo": 3290,
      "iled": 3291,
      "ju": 3292,
      "jur": 3293,
      "jamming": 3294,
      "kar": 3295,
      "kit": 3296,
      "kite": 3297,
      "kick": 3298,
      "lab": 3299,
      "lus": 3300,
      "line": 3301,
      "lmes": 3302,
      "luck": 3303,
      "min": 3304,
      "mow": 3305,
      "mis": 3306,
      "mam": 3307,
      "mke": 3308,
      "mir": 3309,
      "marti": 3310,
      "mist": 3311,
      "mie": 3312,
      "macy": 3313,
      "mille": 3314,
      "nn": 3315,
      "ny": 3316,
      "nar": 3317,
      "nces": 3318,
      "ners": 3319,
      "nations": 3320,
      "nine": 3321,
      "nacks": 3322,
      "ot": 3323,
      "oes": 3324,
      "ole": 3325,
      "oll": 3326,
      "omy": 3327,
      "ovel": 3328,
      "ogen": 3329,
      "oil": 3330,
      "oven": 3331,
      "ocentric": 3332,
      "ogly": 3333,
      "pan": 3334,
      "plo": 3335,
      "pun": 3336,
      "pite": 3337,
      "pting": 3338,
      "pas": 3339,
      "page": 3340,
      "pted": 3341,
      "piz": 3342,
      "pie": 3343,
      "rin": 3344,
      "rate": 3345,
      "rust": 3346,
      "rors": 3347,
      "sou": 3348,
      "sof": 3349,
      "sli": 3350,
      "sti": 3351,
      "sco": 3352,
      "stic": 3353,
      "squ": 3354,
      "sals": 3355,
      "sent": 3356,
      "scul": 3357,
      "saf": 3358,
      "scr": 3359,
      "stics": 3360,
      "stell": 3361,
      "senti": 3362,
      "stop": 3363,
      "slow": 3364,
      "scope": 3365,
      "scen": 3366,
      "snacks": 3367,
      "tour": 3368,
      "tality": 3369,
      "tack": 3370,
      "tances": 3371,
      "tlight": 3372,
      "tton": 3373,
      "tners": 3374,
      "ute": 3375,
      "ual": 3376,
      "uld": 3377,
      "usu": 3378,
      "uci": 3379,
      "umb": 3380,
      "uole": 3381,
      "vin": 3382,
      "vary": 3383,
      "vast": 3384,
      "wal": 3385,
      "wit": 3386,
      "would": 3387,
      "wings": 3388,
      "wall": 3389,
      "xual": 3390,
      "ysit": 3391,
      "za": 3392,
      "zz": 3393,
      "zation": 3394,
      "zene": 3395,
      "ince": 3396,
      "inach": 3397,
      "inati": 3398,
      "inside": 3399,
      "invis": 3400,
      "informed": 3401,
      "inforce": 3402,
      "inclu": 3403,
      "than": 3404,
      "attr": 3405,
      "atical": 3406,
      "anes": 3407,
      "anti": 3408,
      "anaerobic": 3409,
      "rean": 3410,
      "rese": 3411,
      "resu": 3412,
      "reach": 3413,
      "rell": 3414,
      "rection": 3415,
      "reten": 3416,
      "resolving": 3417,
      "recycle": 3418,
      "reng": 3419,
      "resolve": 3420,
      "reshed": 3421,
      "recting": 3422,
      "require": 3423,
      "reju": 3424,
      "reinforce": 3425,
      "oups": 3426,
      "thed": 3427,
      "theme": 3428,
      "thesi": 3429,
      "thems": 3430,
      "tes": 3431,
      "test": 3432,
      "teem": 3433,
      "onac": 3434,
      "only": 3435,
      "Wht": 3436,
      "Whts": 3437,
      "meat": 3438,
      "mework": 3439,
      "meeting": 3440,
      "orways": 3441,
      "orns": 3442,
      "esteem": 3443,
      "erve": 3444,
      "erad": 3445,
      "erie": 3446,
      "erprin": 3447,
      "erogly": 3448,
      "inging": 3449,
      "liver": 3450,
      "liment": 3451,
      "liste": 3452,
      "limb": 3453,
      "libr": 3454,
      "lips": 3455,
      "lists": 3456,
      "lights": 3457,
      "lighting": 3458,
      "lift": 3459,
      "tiation": 3460,
      "tise": 3461,
      "tiss": 3462,
      "tiful": 3463,
      "tipe": 3464,
      "toaster": 3465,
      "leaves": 3466,
      "lecting": 3467,
      "legating": 3468,
      "roof": 3469,
      "roman": 3470,
      "roles": 3471,
      "rophysics": 3472,
      "istic": 3473,
      "istics": 3474,
      "isors": 3475,
      "aling": 3476,
      "allo": 3477,
      "alinate": 3478,
      "altern": 3479,
      "Howdy": 3480,
      "ential": 3481,
      "ency": 3482,
      "encry": 3483,
      "encing": 3484,
      "dome": 3485,
      "docu": 3486,
      "doorways": 3487,
      "state": 3488,
      "stac": 3489,
      "stability": 3490,
      "storms": 3491,
      "stuck": 3492,
      "streng": 3493,
      "ark": 3494,
      "aring": 3495,
      "arad": 3496,
      "arable": 3497,
      "around": 3498,
      "arians": 3499,
      "elf": 3500,
      "elder": 3501,
      "chen": 3502,
      "cham": 3503,
      "chef": 3504,
      "chess": 3505,
      "choo": 3506,
      "chase": 3507,
      "itar": 3508,
      "itary": 3509,
      "icate": 3510,
      "area": 3511,
      "college": 3512,
      "coord": 3513,
      "cotton": 3514,
      "ceiling": 3515,
      "veill": 3516,
      "veget": 3517,
      "tels": 3518,
      "tely": 3519,
      "decentr": 3520,
      "deforest": 3521,
      "defend": 3522,
      "deliver": 3523,
      "delegating": 3524,
      "forgot": 3525,
      "forged": 3526,
      "los": 3527,
      "lose": 3528,
      "loss": 3529,
      "logr": 3530,
      "lotter": 3531,
      "fee": 3532,
      "fety": 3533,
      "fects": 3534,
      "feet": 3535,
      "becom": 3536,
      "verse": 3537,
      "version": 3538,
      "sets": 3539,
      "seance": 3540,
      "seas": 3541,
      "seques": 3542,
      "sexual": 3543,
      "cancer": 3544,
      "canoes": 3545,
      "solos": 3546,
      "accomp": 3547,
      "acquire": 3548,
      "ampo": 3549,
      "amaz": 3550,
      "amigo": 3551,
      "abun": 3552,
      "absolu": 3553,
      "abiotic": 3554,
      "unit": 3555,
      "unusu": 3556,
      "lding": 3557,
      "ldlife": 3558,
      "ssil": 3559,
      "potion": 3560,
      "poked": 3561,
      "wirel": 3562,
      "wildlife": 3563,
      "web": 3564,
      "weight": 3565,
      "webs": 3566,
      "wearable": 3567,
      "conges": 3568,
      "consequ": 3569,
      "conjur": 3570,
      "tub": 3571,
      "turis": 3572,
      "tional": 3573,
      "tration": 3574,
      "trad": 3575,
      "trable": 3576,
      "traf": 3577,
      "trampo": 3578,
      "spid": 3579,
      "spil": 3580,
      "sport": 3581,
      "spies": 3582,
      "spital": 3583,
      "spinach": 3584,
      "terns": 3585,
      "apists": 3586,
      "apples": 3587,
      "agon": 3588,
      "agents": 3589,
      "immut": 3590,
      "vious": 3591,
      "indust": 3592,
      "creas": 3593,
      "creati": 3594,
      "creature": 3595,
      "eyes": 3596,
      "comic": 3597,
      "commer": 3598,
      "composi": 3599,
      "supre": 3600,
      "exper": 3601,
      "exist": 3602,
      "exten": 3603,
      "execu": 3604,
      "moth": 3605,
      "modif": 3606,
      "moving": 3607,
      "mobi": 3608,
      "mosynthesis": 3609,
      "ople": 3610,
      "options": 3611,
      "oprin": 3612,
      "myths": 3613,
      "type": 3614,
      "workng": 3615,
      "workforce": 3616,
      "river": 3617,
      "ried": 3618,
      "rivers": 3619,
      "edge": 3620,
      "inkling": 3621,
      "note": 3622,
      "noon": 3623,
      "novel": 3624,
      "nocturn": 3625,
      "fas": 3626,
      "faster": 3627,
      "generations": 3628,
      "ctives": 3629,
      "adig": 3630,
      "dish": 3631,
      "distribu": 3632,
      "dissoci": 3633,
      "disabilities": 3634,
      "distances": 3635,
      "nego": 3636,
      "neural": 3637,
      "shy": 3638,
      "shine": 3639,
      "shak": 3640,
      "shift": 3641,
      "shoo": 3642,
      "shovel": 3643,
      "sharing": 3644,
      "ancement": 3645,
      "developers": 3646,
      "ask": 3647,
      "associ": 3648,
      "odworking": 3649,
      "ically": 3650,
      "angel": 3651,
      "angri": 3652,
      "ticell": 3653,
      "stray": 3654,
      "member": 3655,
      "processing": 3656,
      "empowered": 3657,
      "perature": 3658,
      "perox": 3659,
      "sitive": 3660,
      "irrel": 3661,
      "itself": 3662,
      "Dolittle": 3663,
      "alize": 3664,
      "urban": 3665,
      "apple": 3666,
      "fictional": 3667,
      "quick": 3668,
      "goal": 3669,
      "gold": 3670,
      "homie": 3671,
      "hotels": 3672,
      "hologr": 3673,
      "hospital": 3674,
      "antages": 3675,
      "artist": 3676,
      "artists": 3677,
      "artistic": 3678,
      "foot": 3679,
      "folding": 3680,
      "fossil": 3681,
      "math": 3682,
      "mathem": 3683,
      "import": 3684,
      "impene": 3685,
      "couldn": 3686,
      "buff": 3687,
      "buzz": 3688,
      "buried": 3689,
      "locked": 3690,
      "ctations": 3691,
      "forms": 3692,
      "bom": 3693,
      "diffusion": 3694,
      "essay": 3695,
      "anser": 3696,
      "providing": 3697,
      "comptr": 3698,
      "compliment": 3699,
      "therapists": 3700,
      "tame": 3701,
      "taste": 3702,
      "tailo": 3703,
      "bringing": 3704,
      "hug": 3705,
      "humor": 3706,
      "prble": 3707,
      "healing": 3708,
      "speech": 3709,
      "big": 3710,
      "bike": 3711,
      "biuld": 3712,
      "bioprin": 3713,
      "ously": 3714,
      "differences": 3715,
      "illum": 3716,
      "lazy": 3717,
      "entrop": 3718,
      "ized": 3719,
      "five": 3720,
      "fives": 3721,
      "figu": 3722,
      "geted": 3723,
      "overnight": 3724,
      "futuris": 3725,
      "grown": 3726,
      "groups": 3727,
      "student": 3728,
      "planes": 3729,
      "planting": 3730,
      "updat": 3731,
      "upload": 3732,
      "voice": 3733,
      "feels": 3734,
      "cultur": 3735,
      "player": 3736,
      "players": 3737,
      "hiking": 3738,
      "hierogly": 3739,
      "seling": 3740,
      "transfer": 3741,
      "transplant": 3742,
      "genetical": 3743,
      "funny": 3744,
      "ownership": 3745,
      "contributors": 3746,
      "advisors": 3747,
      "advancement": 3748,
      "advantages": 3749,
      "cuits": 3750,
      "cutting": 3751,
      "tropes": 3752,
      "functioning": 3753,
      "functionality": 3754,
      "response": 3755,
      "related": 3756,
      "lawn": 3757,
      "ackin": 3758,
      "logistics": 3759,
      "cling": 3760,
      "cycling": 3761,
      "limiting": 3762,
      "biotic": 3763,
      "biotics": 3764,
      "biomes": 3765,
      "bioengine": 3766,
      "blend": 3767,
      "facial": 3768,
      "spiration": 3769,
      "makeover": 3770,
      "makeup": 3771,
      "personalize": 3772,
      "throughs": 3773,
      "throughout": 3774,
      "innovations": 3775,
      "innovators": 3776,
      "affects": 3777,
      "telephone": 3778,
      "cruci": 3779,
      "crackin": 3780,
      "hiding": 3781,
      "small": 3782,
      "mendous": 3783,
      "solvent": 3784,
      "questions": 3785,
      "homes": 3786,
      "homework": 3787,
      "homeless": 3788,
      "cake": 3789,
      "phics": 3790,
      "phering": 3791,
      "situation": 3792,
      "recombination": 3793,
      "onging": 3794,
      "engers": 3795,
      "fixing": 3796,
      "fixture": 3797,
      "blockbus": 3798,
      "despite": 3799,
      "desalinate": 3800,
      "recommendation": 3801,
      "languages": 3802,
      "portal": 3803,
      "portals": 3804,
      "expand": 3805,
      "interface": 3806,
      "interstell": 3807,
      "superfood": 3808,
      "benzene": 3809,
      "vens": 3810,
      "venate": 3811,
      "enhancements": 3812,
      "Youth": 3813,
      "knit": 3814,
      "kness": 3815,
      "pipe": 3816,
      "piano": 3817,
      "parks": 3818,
      "partners": 3819,
      "paradig": 3820,
      "uminati": 3821,
      "motivate": 3822,
      "critical": 3823,
      "drum": 3824,
      "dragon": 3825,
      "machines": 3826,
      "window": 3827,
      "estate": 3828,
      "problems": 3829,
      "achieving": 3830,
      "casting": 3831,
      "challenge": 3832,
      "individual": 3833,
      "backend": 3834,
      "dafe": 3835,
      "talking": 3836,
      "wonders": 3837,
      "solutions": 3838,
      "sustaining": 3839,
      "achieved": 3840,
      "guy": 3841,
      "guitar": 3842,
      "transpiration": 3843,
      "succession": 3844,
      "printed": 3845,
      "designer": 3846,
      "jective": 3847,
      "ject": 3848,
      "pet": 3849,
      "people": 3850,
      "protection": 3851,
      "protect": 3852,
      "controlle": 3853,
      "surger": 3854,
      "surveill": 3855,
      "neurotechnology": 3856,
      "perspectives": 3857,
      "analysis": 3858,
      "realm": 3859,
      "electrical": 3860,
      "engineer": 3861,
      "obstac": 3862,
      "objective": 3863,
      "precau": 3864,
      "precision": 3865,
      "previous": 3866,
      "revolutionary": 3867,
      "trainers": 3868,
      "empath": 3869,
      "discoveries": 3870,
      "proteins": 3871,
      "superheroes": 3872,
      "bursting": 3873,
      "farming": 3874,
      "acidific": 3875,
      "signaling": 3876,
      "societies": 3877,
      "traveling": 3878,
      "travelers": 3879,
      "keys": 3880,
      "trying": 3881,
      "movement": 3882,
      "expressing": 3883,
      "pure": 3884,
      "predates": 3885,
      "wrng": 3886,
      "robot": 3887,
      "beginning": 3888,
      "optimistic": 3889,
      "afternoon": 3890,
      "replicating": 3891,
      "airport": 3892,
      "airplanes": 3893,
      "catch": 3894,
      "capture": 3895,
      "crafting": 3896,
      "diving": 3897,
      "direction": 3898,
      "request": 3899,
      "ledge": 3900,
      "celebrity": 3901,
      "experience": 3902,
      "experimental": 3903,
      "experiencing": 3904,
      "forecasting": 3905,
      "compounds": 3906,
      "astral": 3907,
      "bodily": 3908,
      "event": 3909,
      "garage": 3910,
      "lantern": 3911,
      "lanterns": 3912,
      "muscles": 3913,
      "saw": 3914,
      "same": 3915,
      "sail": 3916,
      "safety": 3917,
      "charity": 3918,
      "charted": 3919,
      "early": 3920,
      "equation": 3921,
      "equity": 3922,
      "itional": 3923,
      "pathogen": 3924,
      "allows": 3925,
      "generate": 3926,
      "circuits": 3927,
      "networking": 3928,
      "cleaning": 3929,
      "electronic": 3930,
      "gardens": 3931,
      "ambiguity": 3932,
      "uncertainty": 3933,
      "Mayans": 3934,
      "happy": 3935,
      "pleasures": 3936,
      "tonight": 3937,
      "vacation": 3938,
      "vacuole": 3939,
      "anecdo": 3940,
      "aneously": 3941,
      "cookin": 3942,
      "trick": 3943,
      "skydiving": 3944,
      "significant": 3945,
      "join": 3946,
      "pions": 3947,
      "credibility": 3948,
      "subject": 3949,
      "suggest": 3950,
      "booths": 3951,
      "telepathic": 3952,
      "telepathically": 3953,
      "repairing": 3954,
      "rainbow": 3955,
      "Area": 3956,
      "Shangri": 3957,
      "bake": 3958,
      "economy": 3959,
      "embark": 3960,
      "galax": 3961,
      "half": 3962,
      "nonpolar": 3963,
      "targeted": 3964,
      "utations": 3965,
      "visit": 3966,
      "woke": 3967,
      "wooll": 3968,
      "woodworking": 3969,
      "winged": 3970,
      "methane": 3971,
      "origins": 3972,
      "isomes": 3973,
      "encouraging": 3974,
      "projected": 3975,
      "plastic": 3976,
      "plastics": 3977,
      "ultaneously": 3978,
      "needs": 3979,
      "appearance": 3980,
      "classical": 3981,
      "explore": 3982,
      "digestive": 3983,
      "breakthroughs": 3984,
      "molecules": 3985,
      "circulation": 3986,
      "pioneered": 3987,
      "pioneering": 3988,
      "receiving": 3989,
      "legends": 3990,
      "Bigfoot": 3991,
      "Lorean": 3992,
      "closets": 3993,
      "laboratory": 3994,
      "preserve": 3995,
      "sunshine": 3996,
      "install": 3997,
      "restaur": 3998,
      "recognize": 3999,
      "root": 4000,
      "deciphering": 4001,
      "excited": 4002,
      "everyone": 4003,
      "heavens": 4004,
      "volcanoes": 4005,
      "confidential": 4006,
      "expectations": 4007,
      "periods": 4008,
      "magicians": 4009,
      "dimensional": 4010,
      "numbers": 4011,
      "economic": 4012,
      "economics": 4013,
      "adopt": 4014,
      "adopting": 4015,
      "basking": 4016,
      "dreams": 4017,
      "drove": 4018,
      "darkness": 4019,
      "hunger": 4020,
      "multicell": 4021,
      "sensitive": 4022,
      "recovery": 4023,
      "messengers": 4024,
      "chemosynthesis": 4025,
      "colonies": 4026,
      "solute": 4027,
      "true": 4028,
      "apartment": 4029,
      "shared": 4030,
      "geometry": 4031,
      "translates": 4032,
      "hereditary": 4033,
      "balls": 4034,
      "cryptocurre": 4035,
      "nutrient": 4036,
      "friends": 4037,
      "correcting": 4038,
      "camarad": 4039,
      "floor": 4040,
      "hanging": 4041,
      "jumping": 4042,
      "nightlight": 4043,
      "simultaneously": 4044,
      "shows": 4045,
      "values": 4046,
      "reflection": 4047,
      "refreshed": 4048,
      "reflecting": 4049,
      "temperature": 4050,
      "programs": 4051,
      "colorful": 4052,
      "detective": 4053,
      "seawater": 4054,
      "polarity": 4055,
      "immortality": 4056,
      "percentage": 4057,
      "heliocentric": 4058,
      "integration": 4059,
      "integrations": 4060,
      "integrating": 4061,
      "higher": 4062,
      "driveway": 4063,
      "mermaids": 4064,
      "customize": 4065,
      "customization": 4066,
      "customized": 4067,
      "transitioning": 4068,
      "magnetic": 4069,
      "organizational": 4070,
      "pursue": 4071,
      "musicians": 4072,
      "asteroids": 4073,
      "multiverse": 4074,
      "orchestrated": 4075,
      "Hola": 4076,
      "Holmes": 4077,
      "astrophysics": 4078,
      "babies": 4079,
      "babysit": 4080,
      "famous": 4081,
      "fraud": 4082,
      "framework": 4083,
      "fishbowl": 4084,
      "global": 4085,
      "globali": 4086,
      "groove": 4087,
      "groovy": 4088,
      "kindness": 4089,
      "massage": 4090,
      "pineapples": 4091,
      "pineapple": 4092,
      "sitch": 4093,
      "spoiled": 4094,
      "spotlight": 4095,
      "twre": 4096,
      "twinkling": 4097,
      "watching": 4098,
      "initiate": 4099,
      "initiated": 4100,
      "reactant": 4101,
      "reactants": 4102,
      "replacement": 4103,
      "meaningful": 4104,
      "lishments": 4105,
      "roads": 4106,
      "enjoying": 4107,
      "style": 4108,
      "stylists": 4109,
      "prosthetic": 4110,
      "prosthetics": 4111,
      "demand": 4112,
      "demands": 4113,
      "beauty": 4114,
      "beautiful": 4115,
      "sequence": 4116,
      "accessible": 4117,
      "accessibility": 4118,
      "unicorn": 4119,
      "unicorns": 4120,
      "construct": 4121,
      "construction": 4122,
      "troubled": 4123,
      "model": 4124,
      "models": 4125,
      "shoppers": 4126,
      "shopping": 4127,
      "alignment": 4128,
      "aligned": 4129,
      "appreciation": 4130,
      "appreciated": 4131,
      "haircut": 4132,
      "haircuts": 4133,
      "budget": 4134,
      "buddy": 4135,
      "limitations": 4136,
      "limitless": 4137,
      "knowledge": 4138,
      "brainstorm": 4139,
      "brainstorming": 4140,
      "backgrounds": 4141,
      "marshmallow": 4142,
      "marshmallows": 4143,
      "breaks": 4144,
      "breathed": 4145,
      "diagnosis": 4146,
      "diagnostics": 4147,
      "philosophers": 4148,
      "philosophical": 4149,
      "presentation": 4150,
      "bowls": 4151,
      "streetlights": 4152,
      "efficient": 4153,
      "efficiency": 4154,
      "Avogad": 4155,
      "Bonjour": 4156,
      "Bruce": 4157,
      "Cas9": 4158,
      "DeLorean": 4159,
      "Dyson": 4160,
      "DevOps": 4161,
      "English": 4162,
      "Future": 4163,
      "Force": 4164,
      "Fibonac": 4165,
      "Illuminati": 4166,
      "Jedi": 4167,
      "Mendel": 4168,
      "Namaste": 4169,
      "Salutations": 4170,
      "Sunday": 4171,
      "Sherlock": 4172,
      "Today": 4173,
      "Truman": 4174,
      "aquatic": 4175,
      "belonging": 4176,
      "blessed": 4177,
      "bathtub": 4178,
      "coffee": 4179,
      "candy": 4180,
      "counseling": 4181,
      "emotional": 4182,
      "evolve": 4183,
      "ecstatic": 4184,
      "front": 4185,
      "fingerprin": 4186,
      "falling": 4187,
      "floral": 4188,
      "flexing": 4189,
      "gaming": 4190,
      "hope": 4191,
      "horses": 4192,
      "karma": 4193,
      "kitchen": 4194,
      "kickin": 4195,
      "lush": 4196,
      "lucky": 4197,
      "minute": 4198,
      "miss": 4199,
      "mammoth": 4200,
      "mirrors": 4201,
      "martial": 4202,
      "mistakes": 4203,
      "millenn": 4204,
      "narrate": 4205,
      "pancreas": 4206,
      "plotting": 4207,
      "puncture": 4208,
      "pastime": 4209,
      "pizza": 4210,
      "piece": 4211,
      "rustling": 4212,
      "soup": 4213,
      "softwre": 4214,
      "slides": 4215,
      "still": 4216,
      "scoop": 4217,
      "squirrel": 4218,
      "salsa": 4219,
      "sculpted": 4220,
      "safer": 4221,
      "scratch": 4222,
      "sentient": 4223,
      "scenes": 4224,
      "tourism": 4225,
      "tackle": 4226,
      "umbrell": 4227,
      "vintage": 4228,
      "varying": 4229,
      "walking": 4230,
      "inception": 4231,
      "invisible": 4232,
      "included": 4233,
      "attractions": 4234,
      "anesthesi": 4235,
      "antibiotics": 4236,
      "research": 4237,
      "resume": 4238,
      "retention": 4239,
      "recycled": 4240,
      "requirements": 4241,
      "rejuvenate": 4242,
      "reinforcement": 4243,
      "themselves": 4244,
      "eradicate": 4245,
      "listening": 4246,
      "limbs": 4247,
      "librarians": 4248,
      "tissues": 4249,
      "romantic": 4250,
      "allotropes": 4251,
      "alternative": 4252,
      "encryption": 4253,
      "documentation": 4254,
      "strength": 4255,
      "elderly": 4256,
      "champions": 4257,
      "chefs": 4258,
      "choose": 4259,
      "coordinate": 4260,
      "vegetable": 4261,
      "decentralized": 4262,
      "deforestation": 4263,
      "forgotten": 4264,
      "lottery": 4265,
      "becoming": 4266,
      "seasons": 4267,
      "sequestration": 4268,
      "accomplishments": 4269,
      "amazing": 4270,
      "abundant": 4271,
      "absolutely": 4272,
      "unusual": 4273,
      "wireless": 4274,
      "website": 4275,
      "congestion": 4276,
      "consequences": 4277,
      "conjuring": 4278,
      "traditional": 4279,
      "traffic": 4280,
      "trampoline": 4281,
      "spider": 4282,
      "spilled": 4283,
      "immutability": 4284,
      "industrial": 4285,
      "creatively": 4286,
      "commerce": 4287,
      "composition": 4288,
      "supremacy": 4289,
      "expertise": 4290,
      "extended": 4291,
      "execution": 4292,
      "modified": 4293,
      "mobile": 4294,
      "nocturnal": 4295,
      "distributed": 4296,
      "dissociation": 4297,
      "negotiation": 4298,
      "shakin": 4299,
      "shooting": 4300,
      "associated": 4301,
      "peroxisomes": 4302,
      "urbanization": 4303,
      "quickly": 4304,
      "hologram": 4305,
      "fossils": 4306,
      "mathematical": 4307,
      "importance": 4308,
      "impenetrable": 4309,
      "buffers": 4310,
      "tailored": 4311,
      "prblem": 4312,
      "bioprinting": 4313,
      "illumination": 4314,
      "entropy": 4315,
      "figures": 4316,
      "futuristic": 4317,
      "updates": 4318,
      "cultural": 4319,
      "hieroglyphics": 4320,
      "genetically": 4321,
      "bioengineered": 4322,
      "crucial": 4323,
      "blockbuster": 4324,
      "interstellar": 4325,
      "superfoods": 4326,
      "partnerships": 4327,
      "paradigm": 4328,
      "controlled": 4329,
      "surgery": 4330,
      "surveillance": 4331,
      "obstacles": 4332,
      "precautions": 4333,
      "empathy": 4334,
      "acidification": 4335,
      "pathogens": 4336,
      "anecdotes": 4337,
      "galaxies": 4338,
      "woolly": 4339,
      "restaurants": 4340,
      "multicellular": 4341,
      "cryptocurrency": 4342,
      "camaraderie": 4343,
      "globalization": 4344,
      "Avogadro": 4345,
      "Fibonacci": 4346,
      "fingerprint": 4347,
      "millennia": 4348,
      "squirrels": 4349,
      "umbrellas": 4350,
      "anesthesia": 4351
    },
    "merges": [
      "i n",
      "t h",
      "a t",
      "a n",
      "r e",
      "o u",
      "th e",
      "t e",
      "o n",
      "W h",
      "y ou",
      "m e",
      "o r",
      "o w",
      "e s",
      "Wh at",
      "o f",
      "e r",
      "in g",
      "l i",
      "t i",
      "t o",
      "l e",
      "r o",
      "i s",
      "a l",
      "H ow",
      "e n",
      "d o",
      "s t",
      "a r",
      "e l",
      "an d",
      "c h",
      "i on",
      "i t",
      "i c",
      "p ro",
      "a re",
      "c o",
      "c e",
      "at ion",
      "C an",
      "a y",
      "v e",
      "te l",
      "tel li",
      "d e",
      "f or",
      "l o",
      "I n",
      "A i",
      "you r",
      "telli Ai",
      "In telliAi",
      "f e",
      "a in",
      "at e",
      "b e",
      "v er",
      "s e",
      "c an",
      "s o",
      "n t",
      "a c",
      "a m",
      "a b",
      "u n",
      "l d",
      "p l",
      "s s",
      "p o",
      "w i",
      "w e",
      "c on",
      "i f",
      "t u",
      "ti on",
      "t r",
      "s p",
      "me nt",
      "te r",
      "a p",
      "t s",
      "a g",
      "i m",
      "v i",
      "in d",
      "c es",
      "h ow",
      "er s",
      "c re",
      "e y",
      "Wh o",
      "wi th",
      "so me",
      "co m",
      "w h",
      "s u",
      "a ch",
      "u s",
      "ou ld",
      "l l",
      "te am",
      "e x",
      "w or",
      "k e",
      "m o",
      "w ay",
      "o p",
      "do es",
      "H ey",
      "m an",
      "m y",
      "g y",
      "h el",
      "i b",
      "t y",
      "wor k",
      "it y",
      "ation s",
      "hel p",
      "ro le",
      "d ay",
      "r i",
      "v el",
      "e d",
      "u l",
      "in k",
      "n o",
      "th ink",
      "i te",
      "f a",
      "e ver",
      "s te",
      "e re",
      "g en",
      "s y",
      "t ing",
      "ou t",
      "c ti",
      "e f",
      "a d",
      "c i",
      "ces s",
      "m b",
      "tu re",
      "g h",
      "d is",
      "n e",
      "s h",
      "le ar",
      "an ce",
      "de vel",
      "devel op",
      "a s",
      "o d",
      "n ing",
      "ic al",
      "i d",
      "te ch",
      "an g",
      "ti c",
      "st r",
      "el l",
      "ib le",
      "d u",
      "v or",
      "fa vor",
      "favor ite",
      "me mb",
      "pro cess",
      "ag e",
      "e m",
      "p er",
      "m un",
      "ab out",
      "memb ers",
      "n d",
      "s i",
      "i r",
      "cti ve",
      "no lo",
      "tech nolo",
      "h and",
      "to day",
      "it s",
      "ef fe",
      "D o",
      "li c",
      "a li",
      "u r",
      "co me",
      "ss ible",
      "po ssible",
      "technolo gy",
      "in e",
      "ste m",
      "I s",
      "u st",
      "ap p",
      "ex pl",
      "f ic",
      "q u",
      "st ar",
      "g o",
      "h e",
      "l y",
      "im pro",
      "com mun",
      "Wh ere",
      "cre ate",
      "commun ic",
      "i al",
      "hand le",
      "h o",
      "an t",
      "te ach",
      "ab le",
      "vi r",
      "sy stem",
      "u c",
      "li ke",
      "ar ti",
      "a ss",
      "is t",
      "c ell",
      "f o",
      "h a",
      "j ust",
      "ch em",
      "be come",
      "expl ain",
      "impro ve",
      "m a",
      "in telli",
      "im p",
      "wh o",
      "fic ial",
      "arti ficial",
      "intelli gen",
      "c tion",
      "c ould",
      "th ing",
      "b u",
      "l u",
      "lo c",
      "G o",
      "c t",
      "te n",
      "ne w",
      "for m",
      "sh ould",
      "intelligen ce",
      "b o",
      "d if",
      "g i",
      "m or",
      "es s",
      "be t",
      "v ity",
      "re d",
      "ti al",
      "effe ctive",
      "u d",
      "an s",
      "pro vi",
      "com p",
      "ass ist",
      "chem ical",
      "v ing",
      "at i",
      "te d",
      "er gy",
      "ti es",
      "ro m",
      "en ergy",
      "provi de",
      "p t",
      "the r",
      "dis co",
      "ha ve",
      "i li",
      "t a",
      "ce pt",
      "con cept",
      "wh at",
      "b r",
      "h u",
      "p r",
      "u se",
      "y thing",
      "po ten",
      "he al",
      "poten tial",
      "i ld",
      "p s",
      "s k",
      "re ss",
      "re sp",
      "tu al",
      "communic ate",
      "d er",
      "h ind",
      "re s",
      "ou r",
      "or y",
      "be hind",
      "ac t",
      "sp e",
      "star t",
      "Go od",
      "hu man",
      "heal th",
      "b i",
      "s is",
      "ou s",
      "me d",
      "al s",
      "fe re",
      "ali ty",
      "bu ild",
      "dif fere",
      "f rom",
      "i ll",
      "re e",
      "pro ach",
      "ap proach",
      "lear n",
      "lear ning",
      "m ind",
      "t ain",
      "lu tion",
      "l a",
      "the re",
      "en t",
      "ab ili",
      "man age",
      "i z",
      "p es",
      "we re",
      "gh t",
      "f i",
      "g e",
      "o ver",
      "li fe",
      "ac tion",
      "f u",
      "g r",
      "k s",
      "m s",
      "re ality",
      "st ud",
      "pl an",
      "ment s",
      "ever ything",
      "imp act",
      "loc k",
      "a u",
      "d en",
      "u p",
      "ti me",
      "lic ations",
      "stud y",
      "m ain",
      "develop ment",
      "H i",
      "H el",
      "i ver",
      "v o",
      "in te",
      "re action",
      "fe el",
      "mor ning",
      "Hel lo",
      "i l",
      "ch ang",
      "sk ill",
      "c ul",
      "pl ay",
      "us ing",
      "app lications",
      "i g",
      "ou nd",
      "er v",
      "go ing",
      "inte re",
      "h i",
      "k ing",
      "s el",
      "s ter",
      "st ay",
      "ve red",
      "tr ans",
      "disco vered",
      "skill s",
      "pro du",
      "gen e",
      "fu ture",
      "w ant",
      "in to",
      "tr ib",
      "str uc",
      "comp u",
      "trib u",
      "f un",
      "r a",
      "t re",
      "ow n",
      "ar d",
      "con tribu",
      "ad v",
      "cell s",
      "sel f",
      "G ree",
      "c u",
      "or t",
      "ste d",
      "ting s",
      "intere sted",
      "struc ture",
      "Gree tings",
      "h ou",
      "t ro",
      "en d",
      "en ce",
      "ar th",
      "it u",
      "sy n",
      "str ate",
      "fun ction",
      "hou se",
      "m on",
      "o m",
      "st ress",
      "se t",
      "way s",
      "vir tual",
      "ati vity",
      "resp on",
      "e le",
      "s erv",
      "re l",
      "re new",
      "on e",
      "ch ain",
      "la w",
      "renew able",
      "C ould",
      "E arth",
      "c are",
      "at u",
      "lo st",
      "ac k",
      "ty pes",
      "a ce",
      "d ri",
      "p ers",
      "ou gh",
      "is ts",
      "lo g",
      "form ation",
      "vo lution",
      "feel ing",
      "a su",
      "c l",
      "f ind",
      "the ory",
      "ic s",
      "se d",
      "we en",
      "gi es",
      "bet ter",
      "bet ween",
      "differe nt",
      "main tain",
      "c y",
      "d id",
      "e co",
      "i e",
      "th r",
      "at ing",
      "li m",
      "ti ve",
      "ic e",
      "se cre",
      "wi ll",
      "con f",
      "bi o",
      "abili ty",
      "b le",
      "c ity",
      "o st",
      "the sis",
      "Wh y",
      "ta ke",
      "iver s",
      "syn thesis",
      "A I",
      "f ac",
      "p ow",
      "in no",
      "me r",
      "or i",
      "so ci",
      "pl es",
      "sp ir",
      "ma ke",
      "chang e",
      "pers on",
      "thr ough",
      "inno v",
      "a f",
      "n ce",
      "te le",
      "ti v",
      "mo re",
      "fo ster",
      "A n",
      "c r",
      "h id",
      "o ther",
      "s m",
      "z e",
      "me nd",
      "al le",
      "so l",
      "ment al",
      "ance ments",
      "qu es",
      "ho me",
      "c a",
      "c ts",
      "p h",
      "s itu",
      "in formation",
      "at er",
      "an tu",
      "re com",
      "on g",
      "en g",
      "en vir",
      "pro po",
      "qu antu",
      "fi x",
      "contribu ted",
      "adv ancements",
      "respon s",
      "hid den",
      "envir on",
      "propo sed",
      "quantu m",
      "N A",
      "b y",
      "b lock",
      "d es",
      "l ang",
      "or g",
      "ate d",
      "ac ti",
      "ag es",
      "some one",
      "sh ap",
      "tic s",
      "system s",
      "situ ations",
      "recom mend",
      "lang u",
      "D NA",
      "b on",
      "c ur",
      "c lim",
      "h ere",
      "o k",
      "p ort",
      "r ing",
      "th is",
      "at om",
      "ar y",
      "ex p",
      "use d",
      "health care",
      "plan ts",
      "reaction s",
      "strate gies",
      "conf lic",
      "An y",
      "block chain",
      "langu age",
      "clim ate",
      "b us",
      "g n",
      "g es",
      "in ter",
      "al y",
      "pro per",
      "be en",
      "ag ing",
      "cre ativity",
      "su per",
      "ta il",
      "manage ment",
      "iz e",
      "b en",
      "v en",
      "en h",
      "it ing",
      "fe atu",
      "un der",
      "un lock",
      "ex am",
      "ul ar",
      "our ces",
      "hi ps",
      "log ists",
      "org an",
      "Y ou",
      "b al",
      "g ain",
      "i es",
      "k n",
      "p i",
      "p ar",
      "u m",
      "th at",
      "me n",
      "me s",
      "is ion",
      "cre ation",
      "mo tiv",
      "man aging",
      "ations hips",
      "ed uc",
      "communic ation",
      "cell ular",
      "br ain",
      "differe nce",
      "trans m",
      "compu ting",
      "rel ationships",
      "educ ation",
      "a k",
      "c ri",
      "d r",
      "h er",
      "i vi",
      "m i",
      "m ach",
      "n ess",
      "s ci",
      "t as",
      "v es",
      "w ind",
      "an ces",
      "or s",
      "es t",
      "ing s",
      "st ages",
      "ch alle",
      "pro ble",
      "tel l",
      "de ad",
      "ac tual",
      "ind ivi",
      "ach ie",
      "dis cu",
      "ati ve",
      "resp ir",
      "abili ties",
      "law s",
      "ivers ity",
      "ca st",
      "exam ples",
      "motiv ated",
      "challe n",
      "actual ly",
      "indivi du",
      "discu ss",
      "b ack",
      "c le",
      "d a",
      "i o",
      "i ly",
      "m ar",
      "t al",
      "w on",
      "z y",
      "st ain",
      "so lution",
      "tr a",
      "im mun",
      "su stain",
      "du ce",
      "cul ture",
      "asu res",
      "respons ible",
      "bon d",
      "ben ef",
      "enh ance",
      "mach ine",
      "proble m",
      "achie ve",
      "individu als",
      "c us",
      "c cess",
      "e volution",
      "f ul",
      "g u",
      "m ic",
      "p ri",
      "t in",
      "u fac",
      "z ard",
      "in ess",
      "an ci",
      "re p",
      "me t",
      "en ti",
      "en zy",
      "po si",
      "wi zard",
      "tr an",
      "su ccess",
      "man ufac",
      "as es",
      "pr in",
      "health y",
      "mind s",
      "ig n",
      "compu ter",
      "maintain ing",
      "spir its",
      "person al",
      "innov ation",
      "des ign",
      "proper ties",
      "da ily",
      "won der",
      "sustain able",
      "pri ori",
      "enzy mes",
      "c tr",
      "u g",
      "w ater",
      "in es",
      "in tro",
      "re si",
      "li ence",
      "to m",
      "en do",
      "us ion",
      "vel y",
      "gh ost",
      "si de",
      "ali en",
      "ho ld",
      "ge t",
      "serv ice",
      "dri ving",
      "eco systems",
      "kn own",
      "tas ks",
      "intro duce",
      "resi lience",
      "c ar",
      "d at",
      "j e",
      "p e",
      "p ho",
      "s ources",
      "u ro",
      "w as",
      "ti ps",
      "ti ze",
      "to synthesis",
      "en tr",
      "pro te",
      "fe ct",
      "be ing",
      "con tro",
      "sp ell",
      "sp ace",
      "ter m",
      "wh ere",
      "su r",
      "cti vely",
      "ne uro",
      "per spe",
      "effe ctively",
      "ur al",
      "pr acti",
      "secre ts",
      "bus iness",
      "bal ance",
      "respir ation",
      "immun e",
      "priori tize",
      "alien s",
      "pho tosynthesis",
      "spell s",
      "a king",
      "f in",
      "n at",
      "s ound",
      "in ion",
      "an aly",
      "re al",
      "the ir",
      "or ation",
      "ti m",
      "en su",
      "st s",
      "wh el",
      "op inion",
      "develop ed",
      "as ter",
      "per i",
      "over whel",
      "iver se",
      "house hold",
      "ele ctr",
      "sol ving",
      "eng ine",
      "environ ment",
      "recommend ations",
      "mar ke",
      "posi tive",
      "dat a",
      "perspe ctive",
      "nat ural",
      "ensu re",
      "a le",
      "a de",
      "c er",
      "c entr",
      "e t",
      "g men",
      "i a",
      "l es",
      "m ag",
      "o b",
      "o logists",
      "p re",
      "p sy",
      "re volution",
      "it ation",
      "co ver",
      "de tail",
      "de term",
      "fe ed",
      "ab o",
      "un iverse",
      "con serv",
      "tr ain",
      "with in",
      "with out",
      "tech n",
      "em p",
      "star s",
      "gi ant",
      "disco ver",
      "au gmen",
      "secre t",
      "super her",
      "featu res",
      "organ iz",
      "transm it",
      "tran sp",
      "prote in",
      "psy ch",
      "feed back",
      "conserv ation",
      "augmen ted",
      "superher o",
      "b ro",
      "b ri",
      "b ur",
      "b est",
      "f er",
      "f ar",
      "l le",
      "y a",
      "an ts",
      "ou d",
      "te ct",
      "le nd",
      "se em",
      "ac id",
      "con tin",
      "tu ring",
      "ri ya",
      "si gn",
      "ma de",
      "bo ard",
      "ess ion",
      "med ia",
      "build ing",
      "produ ctive",
      "cl oud",
      "soci e",
      "soci al",
      "tele port",
      "ph y",
      "challen ges",
      "tra vel",
      "benef its",
      "anci ent",
      "manufac turing",
      "overwhel med",
      "detail s",
      "S up",
      "a th",
      "d y",
      "d ig",
      "f usion",
      "h or",
      "k en",
      "k ey",
      "l at",
      "l ing",
      "o ce",
      "s ion",
      "t ter",
      "z ed",
      "in si",
      "an im",
      "li ve",
      "to p",
      "de c",
      "lo y",
      "se cur",
      "tr y",
      "su p",
      "us es",
      "mo te",
      "mo ve",
      "ang le",
      "tic al",
      "fo od",
      "form ul",
      "br ings",
      "med itation",
      "au tom",
      "strate gy",
      "mon es",
      "asu re",
      "exp ress",
      "conflic ts",
      "determ ine",
      "train ing",
      "bro ken",
      "socie ty",
      "hor mones",
      "secur ity",
      "Y o",
      "c used",
      "e w",
      "g in",
      "n uc",
      "p u",
      "p red",
      "r y",
      "w r",
      "w ell",
      "at es",
      "the m",
      "ow s",
      "of ession",
      "er ations",
      "li ving",
      "le ction",
      "ro bo",
      "is m",
      "ar ch",
      "be gin",
      "con centr",
      "wor ld",
      "mo der",
      "op tim",
      "ed iting",
      "ul ate",
      "cti vity",
      "gh ts",
      "ang er",
      "go als",
      "fo cused",
      "imp le",
      "loc ate",
      "pr ofession",
      "produ ctivity",
      "gene tic",
      "contribu te",
      "af ter",
      "af fect",
      "rep lic",
      "practi ce",
      "revolution ize",
      "concentr ation",
      "moder n",
      "profession al",
      "3 D",
      "a ir",
      "b re",
      "b er",
      "b it",
      "c at",
      "c ap",
      "c our",
      "c au",
      "c ra",
      "d i",
      "d iversity",
      "g ori",
      "i ques",
      "n u",
      "n am",
      "n ment",
      "p ur",
      "r ic",
      "in f",
      "th ms",
      "an o",
      "re ad",
      "re ques",
      "ou nt",
      "on es",
      "le d",
      "le br",
      "al gori",
      "en ts",
      "ar t",
      "ce lebr",
      "for ces",
      "ver s",
      "ver nment",
      "se lection",
      "ac ks",
      "pl ace",
      "tion s",
      "ag ric",
      "com mon",
      "us ers",
      "ex peri",
      "ul ture",
      "ite d",
      "ite ms",
      "fa ce",
      "ere d",
      "tic ism",
      "du ring",
      "Do es",
      "expl oration",
      "create d",
      "fo re",
      "ma king",
      "comp ound",
      "fi re",
      "gr ound",
      "chang es",
      "tre asures",
      "rel ativity",
      "dri ven",
      "cy ber",
      "pow ers",
      "mer s",
      "cr y",
      "environ mental",
      "cri ticism",
      "mi to",
      "sci enti",
      "tal k",
      "contro l",
      "techn iques",
      "emp loy",
      "acid s",
      "dy nam",
      "insi ghts",
      "anim als",
      "dec ision",
      "pred ic",
      "arch ite",
      "algori thms",
      "agric ulture",
      "dynam ics",
      "a str",
      "b od",
      "e v",
      "f ur",
      "g re",
      "g ar",
      "h ist",
      "i ght",
      "l an",
      "l or",
      "m us",
      "m aster",
      "n ano",
      "o c",
      "r is",
      "r ain",
      "s a",
      "v ision",
      "at ory",
      "an y",
      "on ics",
      "li ed",
      "li sm",
      "is h",
      "is on",
      "ar ies",
      "ch ar",
      "ve d",
      "un ivers",
      "un wind",
      "pl ate",
      "po ison",
      "con vers",
      "ment ation",
      "ter s",
      "vi ew",
      "su m",
      "mo on",
      "ste ps",
      "od iversity",
      "effe ct",
      "ali zed",
      "app lied",
      "assist ance",
      "bi odiversity",
      "over view",
      "produ ction",
      "tre nd",
      "adv ice",
      "set ting",
      "atu re",
      "pow er",
      "spir it",
      "cr ine",
      "home made",
      "shap ing",
      "ok ay",
      "under st",
      "dr ug",
      "dead ly",
      "cus to",
      "met abo",
      "endo crine",
      "ghost s",
      "neuro transmit",
      "organiz ed",
      "tect onics",
      "oce an",
      "cau ght",
      "reques ts",
      "convers ations",
      "metabo lism",
      "neurotransmit ters",
      "B er",
      "C R",
      "I S",
      "P R",
      "T ri",
      "b lic",
      "b ases",
      "c ent",
      "d own",
      "e e",
      "e th",
      "e ar",
      "e qu",
      "e ven",
      "g ing",
      "h ic",
      "i tion",
      "j or",
      "m ay",
      "m ud",
      "n ey",
      "o mers",
      "p tion",
      "p ath",
      "s es",
      "in cl",
      "at ter",
      "re g",
      "re solution",
      "on omers",
      "me io",
      "li ght",
      "al l",
      "en ces",
      "co de",
      "ve hic",
      "be ha",
      "se e",
      "am bi",
      "un cer",
      "if ic",
      "tu r",
      "ap t",
      "vi or",
      "cre ative",
      "wh en",
      "mo le",
      "mo tion",
      "mo dynamics",
      "work s",
      "ul um",
      "gen er",
      "ad apt",
      "ci r",
      "ne t",
      "ir st",
      "impro ving",
      "vir us",
      "ma jor",
      "ther modynamics",
      "spe ci",
      "spe aking",
      "mind ful",
      "over come",
      "play ed",
      "tre es",
      "respon d",
      "ele ments",
      "bio technology",
      "pow ered",
      "person alized",
      "innov ative",
      "other s",
      "shap e",
      "atom ic",
      "conflic t",
      "under water",
      "cle an",
      "bond ing",
      "prin ting",
      "get ting",
      "je cts",
      "analy tics",
      "electr on",
      "phy s",
      "express ion",
      "nuc lear",
      "pu blic",
      "ount ain",
      "cyber security",
      "mito sis",
      "scienti sts",
      "archite cts",
      "astr onomers",
      "bod y",
      "gar den",
      "ris ks",
      "Ber mud",
      "CR IS",
      "Tri angle",
      "eth ical",
      "meio sis",
      "beha vior",
      "ambi gu",
      "uncer tain",
      "mindful ness",
      "Bermud a",
      "CRIS PR",
      "A t",
      "M ay",
      "b acks",
      "f ly",
      "h y",
      "h ab",
      "h app",
      "i p",
      "i red",
      "l ong",
      "m ap",
      "n s",
      "n erv",
      "o king",
      "p le",
      "t on",
      "v ac",
      "v am",
      "v ent",
      "in sp",
      "at ic",
      "an e",
      "re ci",
      "re la",
      "me asures",
      "me et",
      "er ing",
      "li z",
      "ti s",
      "le ad",
      "is su",
      "is ms",
      "en ter",
      "en house",
      "it al",
      "co ok",
      "co gn",
      "ay er",
      "pl y",
      "if t",
      "tr ic",
      "vi liz",
      "wh is",
      "work place",
      "no t",
      "ci ples",
      "ci viliz",
      "str u",
      "per form",
      "technolo gies",
      "go od",
      "bo x",
      "mor ale",
      "sk y",
      "tain ment",
      "over bur",
      "plan ning",
      "den ed",
      "ra structure",
      "set backs",
      "log ical",
      "eng age",
      "featu re",
      "pi re",
      "bond s",
      "prin ciples",
      "ug g",
      "car s",
      "transp are",
      "psych ologists",
      "lle ge",
      "sign ific",
      "sup ply",
      "replic ation",
      "cat aly",
      "pur po",
      "inf rastructure",
      "experi ences",
      "fore ver",
      "gre enhouse",
      "hist ory",
      "lan tis",
      "nano technology",
      "vision aries",
      "char ge",
      "custo mer",
      "ambigu ous",
      "At lantis",
      "nerv ous",
      "vam pire",
      "insp ired",
      "rela x",
      "enter tainment",
      "overbur dened",
      "B anger",
      "C o",
      "F G",
      "F irst",
      "G ra",
      "G FG",
      "H ar",
      "P o",
      "P ad",
      "P riya",
      "R o",
      "c ing",
      "c al",
      "c ted",
      "e k",
      "e ts",
      "g ges",
      "h an",
      "i de",
      "j o",
      "j our",
      "k ine",
      "k ary",
      "n ow",
      "n cy",
      "n ature",
      "o tic",
      "p ion",
      "p hi",
      "r u",
      "s ad",
      "u es",
      "u nt",
      "u ous",
      "v ale",
      "in ation",
      "in ate",
      "at ors",
      "ou ght",
      "me mor",
      "of f",
      "ti g",
      "is sion",
      "is try",
      "ar he",
      "and s",
      "pro mote",
      "co ll",
      "for ts",
      "lo so",
      "ac y",
      "am ong",
      "ab or",
      "we ek",
      "con ne",
      "ap tic",
      "ag ne",
      "cre d",
      "su b",
      "su gges",
      "us er",
      "work ing",
      "ri ght",
      "fa i",
      "ef forts",
      "process es",
      "chem istry",
      "Go vernment",
      "ct rom",
      "bo o",
      "bo ost",
      "gi ve",
      "assist ants",
      "br ought",
      "spe ak",
      "spe arhe",
      "human s",
      "ge ologists",
      "fu ll",
      "gr a",
      "plan ets",
      "cul ate",
      "hi p",
      "trans formation",
      "syn aptic",
      "ele ctrom",
      "cy cle",
      "tele path",
      "tele kine",
      "alle l",
      "sol ar",
      "respons es",
      "par allel",
      "transm ission",
      "mi tig",
      "sci ence",
      "rep air",
      "marke t",
      "marke ting",
      "ade d",
      "mag ical",
      "ob jects",
      "pre vent",
      "transp ort",
      "psych ic",
      "contin ent",
      "contin uous",
      "cloud s",
      "dig ital",
      "formul ating",
      "autom ation",
      "robo tics",
      "optim iz",
      "master minds",
      "oc cur",
      "rain b",
      "trend s",
      "underst and",
      "even ts",
      "reg ulate",
      "May ur",
      "map riya",
      "signific ance",
      "Banger a",
      "Co llege",
      "Gra de",
      "GFG C",
      "Har ry",
      "Po tter",
      "Pad mapriya",
      "Ro han",
      "cal culate",
      "kary otic",
      "phi loso",
      "memor y",
      "week end",
      "spearhe aded",
      "electrom agne",
      "telekine tic",
      "A re",
      "S h",
      "a ther",
      "b a",
      "c li",
      "c ines",
      "e p",
      "e con",
      "e mb",
      "e ases",
      "f f",
      "f li",
      "g al",
      "h al",
      "l ow",
      "l ines",
      "l ands",
      "m atter",
      "n on",
      "n itu",
      "o x",
      "p H",
      "s id",
      "s tical",
      "t ar",
      "t age",
      "u t",
      "u ish",
      "v is",
      "w o",
      "w ing",
      "x ie",
      "an ything",
      "an xie",
      "re ce",
      "re du",
      "re mote",
      "te nt",
      "me th",
      "me ch",
      "or d",
      "or ig",
      "le gen",
      "is o",
      "en cour",
      "st ing",
      "st al",
      "st ory",
      "el d",
      "el s",
      "ch lor",
      "ic y",
      "ic es",
      "ic ine",
      "pro je",
      "de d",
      "lo oking",
      "your self",
      "un cover",
      "pl as",
      "pl ant",
      "pl ans",
      "we ather",
      "con sid",
      "tr ust",
      "ag end",
      "cre ators",
      "my stical",
      "ri d",
      "ul t",
      "ting uish",
      "dis eases",
      "ne ed",
      "as is",
      "str ugg",
      "app ear",
      "star ting",
      "fo cus",
      "improve ment",
      "res ources",
      "human ity",
      "med icine",
      "gr ow",
      "gr ap",
      "plan et",
      "il ing",
      "il le",
      "cl ass",
      "bio chemical",
      "ost asis",
      "fac es",
      "home ostasis",
      "exp lo",
      "bus y",
      "brain s",
      "cri me",
      "dead lines",
      "challen ging",
      "benef it",
      "met als",
      "fin ance",
      "analy ze",
      "engine ers",
      "engine ering",
      "discover ing",
      "bri d",
      "dig es",
      "formul a",
      "autom atic",
      "wr iting",
      "bre ak",
      "cap e",
      "nu tr",
      "fire works",
      "cry stal",
      "employ ee",
      "predic t",
      "fur nitu",
      "univers es",
      "sum mon",
      "mole cul",
      "cir cul",
      "speci al",
      "vac cines",
      "transpare ncy",
      "purpo ses",
      "jo y",
      "jour ney",
      "pion e",
      "cred ited",
      "sugges tions",
      "boo ks",
      "transport ation",
      "rainb ows",
      "fli es",
      "lands cape",
      "anxie ty",
      "rece i",
      "mech an",
      "legen d",
      "consid erations",
      "agend a",
      "strugg ling",
      "furnitu re",
      "' ?",
      "B ig",
      "C ity",
      "L o",
      "L ord",
      "M u",
      "M en",
      "N ight",
      "R ings",
      "S tar",
      "T e",
      "T re",
      "T ro",
      "T ell",
      "U du",
      "b lo",
      "b ir",
      "b ances",
      "b hal",
      "c k",
      "c lo",
      "d ou",
      "d on",
      "d ress",
      "d ra",
      "d anger",
      "e vi",
      "e ach",
      "g un",
      "h ack",
      "h ift",
      "i ties",
      "i ous",
      "k our",
      "l er",
      "l li",
      "l ar",
      "l gi",
      "l abor",
      "m ing",
      "m ountain",
      "m ut",
      "n out",
      "o s",
      "p ere",
      "p res",
      "p end",
      "r out",
      "r ad",
      "r app",
      "s un",
      "s abo",
      "s imple",
      "t am",
      "u ce",
      "u str",
      "v y",
      "w ler",
      "x in",
      "in s",
      "in st",
      "in fe",
      "in her",
      "in fect",
      "at us",
      "at itu",
      "re st",
      "re creation",
      "re gener",
      "re cogn",
      "re charge",
      "ou n",
      "on ic",
      "me al",
      "me asure",
      "me tric",
      "es hift",
      "er ies",
      "li ves",
      "li tical",
      "ti ght",
      "ti sm",
      "to pes",
      "to xin",
      "ro o",
      "ro ss",
      "al right",
      "st unt",
      "st ination",
      "ar s",
      "ar atus",
      "ch es",
      "ion s",
      "it ance",
      "pro cra",
      "co pe",
      "co lle",
      "co ck",
      "de v",
      "de al",
      "de ci",
      "ac ross",
      "am bhal",
      "ab oration",
      "po p",
      "po litical",
      "we ap",
      "sp here",
      "ter ms",
      "ag ues",
      "vi ties",
      "ind ustr",
      "ers hip",
      "cre ating",
      "some s",
      "some thing",
      "ex c",
      "ex is",
      "mo vi",
      "mo sis",
      "op erations",
      "man ip",
      "my ster",
      "ri al",
      "fa ke",
      "fa uce",
      "ever y",
      "ci ties",
      "gh ting",
      "dis tur",
      "dis appear",
      "develop ing",
      "id ation",
      "id enti",
      "ang els",
      "si ves",
      "effe cts",
      "app aratus",
      "fic ult",
      "qu eries",
      "he a",
      "loc al",
      "Go lgi",
      "bo ther",
      "bo ok",
      "dif ficult",
      "chemical s",
      "pr ayer",
      "pes ts",
      "gr atitu",
      "den ce",
      "up set",
      "vo l",
      "chang ing",
      "intere sting",
      "gene tics",
      "cu re",
      "mon ey",
      "cy to",
      "eco system",
      "eco logists",
      "conf id",
      "bio metric",
      "ca uses",
      "acti vities",
      "shap eshift",
      "exp e",
      "organ isms",
      "par kour",
      "men sion",
      "dr ones",
      "gu id",
      "anci al",
      "manufac ture",
      "car bon",
      "sur r",
      "practi ces",
      "fin ances",
      "fin ancial",
      "real ly",
      "peri od",
      "mag ic",
      "bri lli",
      "bur nout",
      "fer mentation",
      "sign als",
      "top ics",
      "sup port",
      "ry onic",
      "wr ong",
      "cour se",
      "cra wler",
      "di mension",
      "nu mb",
      "celebr ation",
      "celebr ate",
      "predic tive",
      "ev ade",
      "drug s",
      "incl usion",
      "vehic le",
      "electron s",
      "hab it",
      "happ en",
      "ple asure",
      "whis pere",
      "vale nce",
      "coll aboration",
      "conne ct",
      "gra vity",
      "telepath y",
      "optimiz ing",
      "philoso phy",
      "weekend s",
      "electromagne tism",
      "Sh ambhal",
      "econ om",
      "emb ryonic",
      "ox idation",
      "meth od",
      "orig inate",
      "iso topes",
      "encour age",
      "proje ct",
      "planet ary",
      "ille gal",
      "class if",
      "explo sives",
      "diges tion",
      "molecul ar",
      "circul atory",
      "legend ary",
      "Night crawler",
      "Te am",
      "Tre k",
      "Tro y",
      "Udu pi",
      "blo od",
      "bir d",
      "dra wing",
      "danger ous",
      "evi dence",
      "os mosis",
      "pend ulum",
      "rout ine",
      "rapp ort",
      "sabo tage",
      "tam per",
      "inher itance",
      "recreation al",
      "stunt s",
      "procra stination",
      "colle agues",
      "cock tail",
      "weap on",
      "industr y",
      "manip ulate",
      "myster ious",
      "fauce t",
      "distur bances",
      "disappear ances",
      "identi ty",
      "bother ing",
      "gratitu de",
      "whispere r",
      "Shambhal a",
      "B ang",
      "M on",
      "N ess",
      "a do",
      "a ste",
      "a ves",
      "b as",
      "b la",
      "b icy",
      "c el",
      "d in",
      "d re",
      "d ing",
      "d ro",
      "d ar",
      "d ance",
      "e u",
      "e ating",
      "f it",
      "f ri",
      "g ases",
      "h ar",
      "h un",
      "i le",
      "i vity",
      "l on",
      "l ess",
      "l ph",
      "m ul",
      "n g",
      "n tic",
      "p or",
      "p ing",
      "p to",
      "r ates",
      "s to",
      "s le",
      "s en",
      "s cre",
      "s tim",
      "s now",
      "t ting",
      "t able",
      "t ree",
      "u li",
      "v at",
      "z ers",
      "in stru",
      "th ough",
      "at mo",
      "an cing",
      "re tic",
      "re tail",
      "re cover",
      "re production",
      "re cent",
      "the y",
      "the ntic",
      "me ss",
      "me ra",
      "or ms",
      "es tial",
      "of fer",
      "le x",
      "le aking",
      "ro me",
      "is e",
      "al k",
      "en able",
      "do g",
      "do lph",
      "st ack",
      "st ates",
      "ch e",
      "ic ists",
      "pro ce",
      "co sm",
      "co lon",
      "tel es",
      "de mo",
      "de tect",
      "de code",
      "for man",
      "lo ved",
      "ate board",
      "so lu",
      "am s",
      "po ly",
      "po ster",
      "con sum",
      "con tent",
      "tr u",
      "tr ace",
      "tr ater",
      "sp end",
      "ap art",
      "ag ed",
      "ag ree",
      "im mer",
      "im poster",
      "us ivity",
      "team s",
      "ex other",
      "ex trater",
      "ri es",
      "ri ous",
      "ul ation",
      "no ble",
      "fa ther",
      "sy nd",
      "ad dress",
      "dis course",
      "dis agree",
      "sh are",
      "tic les",
      "per forman",
      "si ve",
      "hand ling",
      "qu ality",
      "star ted",
      "go vernment",
      "ho les",
      "imp lications",
      "intelligen t",
      "bu t",
      "ten ance",
      "bo ts",
      "dif fer",
      "gi ants",
      "ther mic",
      "ili ty",
      "sk ateboard",
      "med ical",
      "ent angle",
      "iz ation",
      "fi eld",
      "fi ghting",
      "ge o",
      "action s",
      "au ton",
      "au thentic",
      "main tenance",
      "vo tal",
      "il bla",
      "cul tiv",
      "trans lat",
      "produ ct",
      "gene ous",
      "tre ating",
      "cu rious",
      "om ous",
      "eco logical",
      "bio logical",
      "cr acy",
      "sol ve",
      "ques tion",
      "acti vity",
      "here d",
      "inter pre",
      "inter faces",
      "under ground",
      "bal l",
      "pi votal",
      "par ticles",
      "ak es",
      "respir atory",
      "tra ilbla",
      "achieve ments",
      "endo plas",
      "endo thermic",
      "sur face",
      "neuro scientists",
      "business es",
      "electr ic",
      "techn ical",
      "lat est",
      "robo ts",
      "optim ize",
      "imple mentation",
      "cap abilities",
      "face d",
      "cry pto",
      "fur ther",
      "mus ical",
      "sa ve",
      "univers al",
      "equ ations",
      "incl usivity",
      "vehic les",
      "phys icists",
      "reci pes",
      "lead ership",
      "issu e",
      "issu es",
      "civiliz ation",
      "civiliz ations",
      "cataly st",
      "ide as",
      "sub atomic",
      "fai ries",
      "mitig ate",
      "cli ents",
      "redu ction",
      "nutr i",
      "pione ers",
      "Lo ch",
      "mountain s",
      "mut ations",
      "inst ant",
      "rest rial",
      "recogn ition",
      "oun ded",
      "deci de",
      "exc iting",
      "every day",
      "hea vy",
      "confid ence",
      "expe cted",
      "period ic",
      "numb er",
      "happen ing",
      "Mon ster",
      "bicy cle",
      "cel estial",
      "eu karyotic",
      "fit ness",
      "fri end",
      "har ness",
      "sle ep",
      "scre en",
      "stim uli",
      "instru ment",
      "though ts",
      "atmo sphere",
      "retic ulum",
      "mera se",
      "dolph ins",
      "proce ed",
      "cosm ic",
      "demo cracy",
      "poly merase",
      "consum ption",
      "trace ability",
      "immer sive",
      "exother mic",
      "extrater restrial",
      "synd rome",
      "performan ce",
      "entangle ment",
      "auton omous",
      "authentic ation",
      "cultiv ate",
      "trailbla zers",
      "endoplas mic",
      "I D",
      "O u",
      "a ve",
      "a ud",
      "a spe",
      "a sts",
      "b l",
      "b s",
      "b t",
      "b an",
      "b by",
      "b ates",
      "c or",
      "c am",
      "c ture",
      "d cast",
      "e ch",
      "e arth",
      "e mer",
      "e pi",
      "f lo",
      "f lu",
      "f act",
      "f ree",
      "f la",
      "f lat",
      "f ountain",
      "g ri",
      "h ers",
      "h ang",
      "h ust",
      "i j",
      "i or",
      "i ed",
      "i ans",
      "i tive",
      "i uses",
      "j um",
      "k es",
      "k is",
      "k id",
      "k ines",
      "l f",
      "l ation",
      "l ayer",
      "m ph",
      "m ater",
      "n ight",
      "o z",
      "o pl",
      "o planets",
      "o somes",
      "p en",
      "p ain",
      "p ress",
      "p atter",
      "r ib",
      "r ane",
      "s on",
      "s im",
      "s how",
      "t ors",
      "u re",
      "u ti",
      "u tion",
      "v al",
      "w er",
      "w ri",
      "w aves",
      "in ves",
      "in vol",
      "th ro",
      "th ree",
      "th underst",
      "at ch",
      "at ial",
      "an thro",
      "re f",
      "re do",
      "te m",
      "te t",
      "te ars",
      "on s",
      "on t",
      "on y",
      "on ance",
      "on ents",
      "you th",
      "me try",
      "or n",
      "or ches",
      "es e",
      "li zed",
      "le us",
      "le ak",
      "ro p",
      "ro id",
      "ro om",
      "is tinguish",
      "ic ill",
      "pro mo",
      "pro gr",
      "pro karyotic",
      "co lor",
      "co ding",
      "de te",
      "de bates",
      "for med",
      "lo ad",
      "se a",
      "se cure",
      "ac tiv",
      "ac ade",
      "am ming",
      "un inspired",
      "un ities",
      "un expected",
      "po ll",
      "po logists",
      "po lar",
      "po dcast",
      "con sci",
      "con cer",
      "tr ip",
      "sp atial",
      "ment ing",
      "ter ra",
      "im mor",
      "im ary",
      "ind istinguish",
      "ll ing",
      "team work",
      "ex oplanets",
      "mo st",
      "mo ment",
      "op port",
      "op hy",
      "hel lo",
      "fa sh",
      "gen iuses",
      "sy mph",
      "dis aster",
      "dis tinguish",
      "sh ed",
      "du de",
      "memb rane",
      "per cent",
      "si tion",
      "ir ical",
      "qu akes",
      "go t",
      "he li",
      "he ard",
      "ial s",
      "ho bby",
      "vir al",
      "chem ists",
      "ma id",
      "ction s",
      "thing s",
      "bu tter",
      "lu res",
      "lu ence",
      "ten ce",
      "gi ving",
      "ans wer",
      "comp lex",
      "comp onents",
      "ili bri",
      "pr imary",
      "res onance",
      "ous ness",
      "were wo",
      "time s",
      "study ing",
      "inte gr",
      "hi gh",
      "stay ing",
      "trans cri",
      "trans lation",
      "tre at",
      "tre asure",
      "cu le",
      "function s",
      "stress ful",
      "serv ices",
      "dri ve",
      "feeling s",
      "cl es",
      "mer maid",
      "foster ing",
      "An ything",
      "sm art",
      "sm iling",
      "org ans",
      "cur re",
      "conflic ting",
      "inter actions",
      "inter ior",
      "super powers",
      "organ ize",
      "par ty",
      "tas k",
      "discuss ions",
      "io tic",
      "io books",
      "immun ity",
      "cus tom",
      "tin y",
      "tran sition",
      "computer s",
      "pe ts",
      "contro lling",
      "real ms",
      "mag ne",
      "emp irical",
      "organiz ation",
      "teleport ation",
      "oce ans",
      "top ic",
      "nuc leus",
      "imple menting",
      "replic ate",
      "bre aking",
      "pur su",
      "inf luence",
      "read y",
      "fire flies",
      "ground breaking",
      "ev ances",
      "mus ic",
      "oc tet",
      "rain dro",
      "trend ing",
      "equ ilibri",
      "ney s",
      "tur n",
      "mole cule",
      "gener al",
      "speci es",
      "phys ical",
      "hab its",
      "lead er",
      "cogn itive",
      "whis pers",
      "ide a",
      "ru le",
      "fai lures",
      "full y",
      "mitig ating",
      "understand ing",
      "ba sed",
      "chlor opl",
      "chlor ophy",
      "grow th",
      "grap hy",
      "grap hers",
      "recei ved",
      "mechan ics",
      "mechan isms",
      "dou bt",
      "rad io",
      "infe ctions",
      "regener ation",
      "dev ices",
      "exis tence",
      "movi es",
      "cyto kines",
      "guid ance",
      "surr ounded",
      "brilli ance",
      "dimension s",
      "habit able",
      "econom ists",
      "classif y",
      "bird s",
      "aste roid",
      "bas ic",
      "dre am",
      "dar k",
      "hun ter",
      "mul ti",
      "sen se",
      "snow fla",
      "mess ages",
      "che ese",
      "colon ize",
      "tru th",
      "address ing",
      "disagree ments",
      "geo graphers",
      "translat ors",
      "hered ity",
      "crypto graphy",
      "nutri ents",
      "Ou ij",
      "aud iobooks",
      "aspe cts",
      "bl ack",
      "earth quakes",
      "emer ging",
      "epi genetics",
      "flu ff",
      "fact ors",
      "gri evances",
      "hust le",
      "kis ses",
      "kid neys",
      "mater ials",
      "oz one",
      "pen icill",
      "pain t",
      "press ure",
      "patter ns",
      "rib osomes",
      "uti lized",
      "wri te",
      "inves ting",
      "invol ved",
      "thunderst orms",
      "anthro pologists",
      "redo x",
      "orches tr",
      "leak y",
      "promo ting",
      "activ ation",
      "acade mic",
      "poll ution",
      "podcast s",
      "consci ousness",
      "concer ns",
      "terra form",
      "indistinguish able",
      "opport unities",
      "fash ion",
      "symph ony",
      "butter flies",
      "werewo lf",
      "transcri ption",
      "raindro ps",
      "equilibri um",
      "chloropl asts",
      "chlorophy ll",
      "snowfla kes",
      "Ouij a",
      "penicill in",
      "5 G",
      "A T",
      "A vat",
      "D or",
      "D op",
      "D id",
      "E l",
      "E aster",
      "G ib",
      "H o",
      "I o",
      "L i",
      "L ew",
      "M ars",
      "P ar",
      "T V",
      "T h",
      "W ere",
      "W ant",
      "a w",
      "a er",
      "a st",
      "a ke",
      "a way",
      "b ou",
      "b ow",
      "b ab",
      "b ound",
      "b log",
      "b ility",
      "c ting",
      "c ks",
      "c ard",
      "c ount",
      "c rop",
      "d or",
      "d am",
      "d able",
      "d one",
      "d ancing",
      "e g",
      "e at",
      "e ve",
      "e ath",
      "e try",
      "f l",
      "f am",
      "f ant",
      "f ra",
      "f ence",
      "f ish",
      "f irst",
      "f ru",
      "f low",
      "g l",
      "g s",
      "g er",
      "g li",
      "g ro",
      "g lo",
      "g ical",
      "g our",
      "g ativity",
      "g lim",
      "g low",
      "g roo",
      "h ap",
      "h as",
      "h ous",
      "h roo",
      "i re",
      "i ti",
      "i ch",
      "i ation",
      "i ers",
      "i eld",
      "j ok",
      "j ob",
      "j ugg",
      "k ind",
      "l in",
      "l ap",
      "l ting",
      "m ate",
      "m ass",
      "m il",
      "m ines",
      "m all",
      "n er",
      "n ex",
      "n ted",
      "o o",
      "o me",
      "o loc",
      "o ms",
      "o sa",
      "p ine",
      "p ass",
      "p ati",
      "p ill",
      "p loy",
      "r ow",
      "r ay",
      "r up",
      "r ong",
      "s the",
      "s ch",
      "s it",
      "s ay",
      "s po",
      "s wi",
      "s ke",
      "s ession",
      "t t",
      "t w",
      "t ch",
      "t ation",
      "t ong",
      "t tom",
      "t acks",
      "t orn",
      "u e",
      "u ri",
      "u ed",
      "u ff",
      "v itation",
      "w inter",
      "w ish",
      "w alk",
      "w atch",
      "x ture",
      "y on",
      "y ield",
      "in ing",
      "in ts",
      "in su",
      "in come",
      "in cor",
      "in iti",
      "th s",
      "at s",
      "at bots",
      "at oms",
      "at tacks",
      "an ing",
      "an other",
      "an ches",
      "an ions",
      "re n",
      "re li",
      "re ct",
      "re act",
      "re duce",
      "re sur",
      "re place",
      "re activity",
      "ou ter",
      "ou ble",
      "the ater",
      "te ro",
      "on dri",
      "me lting",
      "me aning",
      "or ing",
      "or ations",
      "or ical",
      "or der",
      "es tro",
      "es hip",
      "er tive",
      "li ter",
      "li day",
      "li sh",
      "li eve",
      "li tt",
      "ti re",
      "ti vity",
      "ti des",
      "le ton",
      "le nted",
      "ro b",
      "ro ad",
      "ro organisms",
      "ro cks",
      "is n",
      "al ready",
      "en e",
      "en joy",
      "st y",
      "st or",
      "st res",
      "st ree",
      "st ances",
      "st ake",
      "st uff",
      "ar ms",
      "ar king",
      "el y",
      "el ves",
      "ch ild",
      "ch atbots",
      "ch ondri",
      "it ate",
      "it oring",
      "ic k",
      "pro jects",
      "pro sthe",
      "co pes",
      "co oking",
      "co vale",
      "de m",
      "de gr",
      "de ep",
      "de ploy",
      "for ce",
      "for dable",
      "lo ve",
      "lo go",
      "In ter",
      "fe tch",
      "ain st",
      "ate ful",
      "be au",
      "be ams",
      "be yon",
      "be lieve",
      "ver si",
      "se am",
      "se mb",
      "se qu",
      "so somes",
      "ac ts",
      "ac cess",
      "ac tive",
      "ac count",
      "ac iers",
      "ac eship",
      "un ic",
      "un lim",
      "un motivated",
      "pl er",
      "pl ine",
      "po etry",
      "po ints",
      "con struc",
      "con stru",
      "con tem",
      "tu tors",
      "tr ouble",
      "sp ill",
      "sp icy",
      "sp ont",
      "sp arking",
      "sp aceship",
      "ter n",
      "ag no",
      "ag ainst",
      "im plants",
      "vi be",
      "cre atu",
      "wh ite",
      "wh ile",
      "su ch",
      "ex tin",
      "wor d",
      "ke d",
      "mo d",
      "mo od",
      "mo ments",
      "mo lar",
      "mo geneous",
      "man t",
      "ib ility",
      "work load",
      "day s",
      "ed ul",
      "ul ating",
      "ink ing",
      "think ing",
      "gen es",
      "gen ie",
      "gen ome",
      "sy mb",
      "cti c",
      "cti ous",
      "ef fic",
      "ad able",
      "ad ows",
      "ci pline",
      "dis gu",
      "dis rup",
      "dis cipline",
      "ne ur",
      "sh op",
      "sh ee",
      "sh mall",
      "sh adows",
      "as tic",
      "as semb",
      "str ong",
      "si ze",
      "ir cu",
      "technolo gical",
      "ali ties",
      "ali gn",
      "ur s",
      "come t",
      "app ing",
      "app reci",
      "qu ire",
      "he tero",
      "he ctic",
      "ly sosomes",
      "commun ities",
      "handle d",
      "ho liday",
      "ho mogeneous",
      "vir uses",
      "uc k",
      "ass ertive",
      "ha unt",
      "ha ircu",
      "ma estro",
      "imp uri",
      "imp acts",
      "bu d",
      "bu y",
      "lu mines",
      "new s",
      "form al",
      "bo iling",
      "bo ttom",
      "comp anions",
      "ta lented",
      "br and",
      "br anches",
      "pr ise",
      "ps es",
      "spe ed",
      "spe ctr",
      "med itate",
      "mind set",
      "tain s",
      "fi ght",
      "gr ant",
      "gr ateful",
      "vo ting",
      "play ground",
      "ound ing",
      "sel tong",
      "trans form",
      "produ ce",
      "ard s",
      "function alities",
      "mon itoring",
      "ele ment",
      "ele vat",
      "one gativity",
      "care er",
      "find ing",
      "thr own",
      "lim it",
      "conf er",
      "bio degr",
      "bio lumines",
      "fac ing",
      "fac ts",
      "af fordable",
      "sm ile",
      "ph one",
      "eng aged",
      "des tiny",
      "shap ed",
      "cur tains",
      "inter act",
      "inter net",
      "inter molecular",
      "super human",
      "super vis",
      "ben eath",
      "enh ancing",
      "exam s",
      "kn ow",
      "men stru",
      "brain stor",
      "dr ift",
      "dr inking",
      "mi xture",
      "est ones",
      "tell ing",
      "back ground",
      "io metry",
      "mar ine",
      "mar shmall",
      "tal es",
      "tra its",
      "culture s",
      "mic row",
      "mic roorganisms",
      "enti re",
      "posi tivity",
      "wizard s",
      "wonder ful",
      "priori ties",
      "hold ers",
      "pe ace",
      "entr ance",
      "contro versi",
      "sur pass",
      "sur prise",
      "neuro science",
      "overwhel m",
      "electr onegativity",
      "marke ts",
      "cer ies",
      "centr ic",
      "ob ic",
      "ob tain",
      "determ ining",
      "secret ly",
      "organiz ing",
      "lat ely",
      "insi ght",
      "anim al",
      "dec orations",
      "pu t",
      "bre a",
      "cat s",
      "di vision",
      "di agno",
      "fore st",
      "mito chondri",
      "scienti fic",
      "employ ment",
      "archite cture",
      "gre at",
      "hist orical",
      "mus hroo",
      "nano bots",
      "custo mers",
      "even ing",
      "reg ulating",
      "light ning",
      "see king",
      "cir cles",
      "net work",
      "net works",
      "phys ics",
      "hy brid",
      "happ iness",
      "ane ity",
      "reci pe",
      "tric ks",
      "box es",
      "transpare nt",
      "cataly ze",
      "cataly sts",
      "purpo se",
      "coll abor",
      "conne cted",
      "sub stances",
      "gra vitation",
      "transformation al",
      "continent al",
      "optimiz ation",
      "philoso ph",
      "electromagne tic",
      "ba se",
      "cli mb",
      "non metals",
      "vis ited",
      "redu cing",
      "story telling",
      "grow ing",
      "brid ge",
      "brid ges",
      "nutr ition",
      "recei ve",
      "clo set",
      "clo tting",
      "dou ble",
      "pres ent",
      "pres ence",
      "rad iation",
      "sun beams",
      "infe ctious",
      "regener ative",
      "dev ice",
      "pop ulation",
      "exis ted",
      "movi e",
      "cyto ske",
      "guid ing",
      "surr ounding",
      "brilli ant",
      "habit ats",
      "classif ied",
      "din ner",
      "din osa",
      "por ate",
      "por ary",
      "sto re",
      "sto ich",
      "tree house",
      "alk ali",
      "teles cope",
      "teles copes",
      "solu bility",
      "interpre tive",
      "interpre tation",
      "friend ly",
      "sleep ing",
      "ban k",
      "cam ping",
      "ech oloc",
      "flo ating",
      "jum p",
      "son ar",
      "sim ulation",
      "val ued",
      "progr amming",
      "dete ction",
      "immor tal",
      "moment um",
      "disaster s",
      "heli x",
      "treat ments",
      "curre nt",
      "magne ts",
      "pursu ing",
      "radio activity",
      "multi ple",
      "fluff y",
      "orchestr ating",
      "AT P",
      "Avat ar",
      "Dor ado",
      "Dop pler",
      "Gib bs",
      "Io T",
      "Li fe",
      "Lew is",
      "Par seltong",
      "Th ings",
      "aw ards",
      "aer obic",
      "bou nce",
      "bow l",
      "bound aries",
      "card board",
      "dor mant",
      "dam aged",
      "eg gs",
      "fl apping",
      "fant astic",
      "fru ition",
      "flow ers",
      "gl aciers",
      "gli tter",
      "gro ceries",
      "gour met",
      "glim pses",
      "hap s",
      "hous ing",
      "jok es",
      "jugg le",
      "lap top",
      "mil estones",
      "nex t",
      "pati ent",
      "pill ows",
      "ray s",
      "sch edul",
      "say ing",
      "swi m",
      "session s",
      "wish es",
      "insu lin",
      "incor porate",
      "reli ef",
      "resur rect",
      "liter acy",
      "litt le",
      "stres sed",
      "stree t",
      "stake holders",
      "child ren",
      "covale nt",
      "deploy ment",
      "Inter net",
      "beyon d",
      "seam less",
      "account ability",
      "unlim ited",
      "constru ctive",
      "contem porary",
      "spont aneity",
      "creatu res",
      "extin ct",
      "molar ity",
      "symb iotic",
      "effic i",
      "disgu ise",
      "disrup tions",
      "neur ons",
      "shee p",
      "assemb le",
      "hetero geneous",
      "maestro s",
      "impuri ties",
      "spectr um",
      "elevat or",
      "biodegr adable",
      "biolumines cent",
      "smile y",
      "supervis ors",
      "menstru al",
      "microw ave",
      "controversi al",
      "surpass es",
      "mitochondri a",
      "mushroo ms",
      "hybrid ization",
      "collabor ate",
      "cytoske leton",
      "dinosa urs",
      "stoich iometry",
      "echoloc ation",
      "Parseltong ue",
      "schedul es",
      "5 1",
      "A vo",
      "B on",
      "B ack",
      "B ru",
      "C as",
      "D e",
      "D r",
      "D y",
      "D ev",
      "E ng",
      "F u",
      "F or",
      "F ib",
      "F ountain",
      "H as",
      "H ave",
      "I ll",
      "J ed",
      "L a",
      "L ee",
      "M end",
      "M other",
      "N am",
      "N ice",
      "N ature",
      "O ps",
      "R NA",
      "S al",
      "S un",
      "S how",
      "S her",
      "T o",
      "T he",
      "T ru",
      "a x",
      "a z",
      "a se",
      "a id",
      "a ur",
      "a qu",
      "b el",
      "b ali",
      "b les",
      "b ath",
      "b ination",
      "c of",
      "c en",
      "c do",
      "c st",
      "c and",
      "c lu",
      "c ision",
      "c oun",
      "c turn",
      "d ers",
      "d ant",
      "d iverse",
      "e ting",
      "e cu",
      "e motion",
      "e vol",
      "e cst",
      "f r",
      "f t",
      "f an",
      "f ing",
      "f al",
      "f ting",
      "f ance",
      "f ell",
      "f ound",
      "f end",
      "f lor",
      "f lex",
      "f ounded",
      "g am",
      "g ed",
      "g ad",
      "g ly",
      "g ating",
      "g rid",
      "h op",
      "h ad",
      "h ors",
      "i lo",
      "i go",
      "i led",
      "j u",
      "j ur",
      "j amming",
      "k ar",
      "k it",
      "k ite",
      "k ick",
      "l ab",
      "l us",
      "l ine",
      "l mes",
      "l uck",
      "m in",
      "m ow",
      "m is",
      "m am",
      "m ke",
      "m ir",
      "m arti",
      "m ist",
      "m ie",
      "m acy",
      "m ille",
      "n n",
      "n y",
      "n ar",
      "n ces",
      "n ers",
      "n ations",
      "n ine",
      "n acks",
      "o t",
      "o es",
      "o le",
      "o ll",
      "o my",
      "o vel",
      "o gen",
      "o il",
      "o ven",
      "o centric",
      "o gly",
      "p an",
      "p lo",
      "p un",
      "p ite",
      "p ting",
      "p as",
      "p age",
      "p ted",
      "p iz",
      "p ie",
      "r in",
      "r ate",
      "r ust",
      "r ors",
      "s ou",
      "s of",
      "s li",
      "s ti",
      "s co",
      "s tic",
      "s qu",
      "s als",
      "s ent",
      "s cul",
      "s af",
      "s cr",
      "s tics",
      "s tell",
      "s enti",
      "s top",
      "s low",
      "s cope",
      "s cen",
      "s nacks",
      "t our",
      "t ality",
      "t ack",
      "t ances",
      "t light",
      "t ton",
      "t ners",
      "u te",
      "u al",
      "u ld",
      "u su",
      "u ci",
      "u mb",
      "u ole",
      "v in",
      "v ary",
      "v ast",
      "w al",
      "w it",
      "w ould",
      "w ings",
      "w all",
      "x ual",
      "y sit",
      "z a",
      "z z",
      "z ation",
      "z ene",
      "in ce",
      "in ach",
      "in ati",
      "in side",
      "in vis",
      "in formed",
      "in force",
      "in clu",
      "th an",
      "at tr",
      "at ical",
      "an es",
      "an ti",
      "an aerobic",
      "re an",
      "re se",
      "re su",
      "re ach",
      "re ll",
      "re ction",
      "re ten",
      "re solving",
      "re cycle",
      "re ng",
      "re solve",
      "re shed",
      "re cting",
      "re quire",
      "re ju",
      "re inforce",
      "ou ps",
      "the d",
      "the me",
      "the si",
      "the ms",
      "te s",
      "te st",
      "te em",
      "on ac",
      "on ly",
      "Wh t",
      "Wh ts",
      "me at",
      "me work",
      "me eting",
      "or ways",
      "or ns",
      "es teem",
      "er ve",
      "er ad",
      "er ie",
      "er prin",
      "er ogly",
      "ing ing",
      "li ver",
      "li ment",
      "li ste",
      "li mb",
      "li br",
      "li ps",
      "li sts",
      "li ghts",
      "li ghting",
      "li ft",
      "ti ation",
      "ti se",
      "ti ss",
      "ti ful",
      "ti pe",
      "to aster",
      "le aves",
      "le cting",
      "le gating",
      "ro of",
      "ro man",
      "ro les",
      "ro physics",
      "is tic",
      "is tics",
      "is ors",
      "al ing",
      "al lo",
      "al inate",
      "al tern",
      "How dy",
      "en tial",
      "en cy",
      "en cry",
      "en cing",
      "do me",
      "do cu",
      "do orways",
      "st ate",
      "st ac",
      "st ability",
      "st orms",
      "st uck",
      "st reng",
      "ar k",
      "ar ing",
      "ar ad",
      "ar able",
      "ar ound",
      "ar ians",
      "el f",
      "el der",
      "ch en",
      "ch am",
      "ch ef",
      "ch ess",
      "ch oo",
      "ch ase",
      "it ar",
      "it ary",
      "ic ate",
      "are a",
      "co llege",
      "co ord",
      "co tton",
      "ce iling",
      "ve ill",
      "ve get",
      "tel s",
      "tel y",
      "de centr",
      "de forest",
      "de fend",
      "de liver",
      "de legating",
      "for got",
      "for ged",
      "lo s",
      "lo se",
      "lo ss",
      "lo gr",
      "lo tter",
      "fe e",
      "fe ty",
      "fe cts",
      "fe et",
      "be com",
      "ver se",
      "ver sion",
      "se ts",
      "se ance",
      "se as",
      "se ques",
      "se xual",
      "can cer",
      "can oes",
      "so los",
      "ac comp",
      "ac quire",
      "am po",
      "am az",
      "am igo",
      "ab un",
      "ab solu",
      "ab iotic",
      "un it",
      "un usu",
      "ld ing",
      "ld life",
      "ss il",
      "po tion",
      "po ked",
      "wi rel",
      "wi ldlife",
      "we b",
      "we ight",
      "we bs",
      "we arable",
      "con ges",
      "con sequ",
      "con jur",
      "tu b",
      "tu ris",
      "tion al",
      "tr ation",
      "tr ad",
      "tr able",
      "tr af",
      "tr ampo",
      "sp id",
      "sp il",
      "sp ort",
      "sp ies",
      "sp ital",
      "sp inach",
      "ter ns",
      "ap ists",
      "ap ples",
      "ag on",
      "ag ents",
      "im mut",
      "vi ous",
      "ind ust",
      "cre as",
      "cre ati",
      "cre ature",
      "ey es",
      "com ic",
      "com mer",
      "com posi",
      "su pre",
      "ex per",
      "ex ist",
      "ex ten",
      "ex ecu",
      "mo th",
      "mo dif",
      "mo ving",
      "mo bi",
      "mo synthesis",
      "op le",
      "op tions",
      "op rin",
      "my ths",
      "ty pe",
      "work ng",
      "work force",
      "ri ver",
      "ri ed",
      "ri vers",
      "ed ge",
      "ink ling",
      "no te",
      "no on",
      "no vel",
      "no cturn",
      "fa s",
      "fa ster",
      "gen erations",
      "cti ves",
      "ad ig",
      "dis h",
      "dis tribu",
      "dis soci",
      "dis abilities",
      "dis tances",
      "ne go",
      "ne ural",
      "sh y",
      "sh ine",
      "sh ak",
      "sh ift",
      "sh oo",
      "sh ovel",
      "sh aring",
      "ance ment",
      "develop ers",
      "as k",
      "as soci",
      "od working",
      "ical ly",
      "ang el",
      "ang ri",
      "tic ell",
      "str ay",
      "memb er",
      "process ing",
      "em powered",
      "per ature",
      "per ox",
      "si tive",
      "ir rel",
      "its elf",
      "Do little",
      "ali ze",
      "ur ban",
      "app le",
      "fic tional",
      "qu ick",
      "go al",
      "go ld",
      "ho mie",
      "ho tels",
      "ho logr",
      "ho spital",
      "ant ages",
      "arti st",
      "arti sts",
      "arti stic",
      "fo ot",
      "fo lding",
      "fo ssil",
      "ma th",
      "ma them",
      "imp ort",
      "imp ene",
      "could n",
      "bu ff",
      "bu zz",
      "bu ried",
      "loc ked",
      "ct ations",
      "form s",
      "bo m",
      "dif fusion",
      "ess ay",
      "ans er",
      "provi ding",
      "comp tr",
      "comp liment",
      "ther apists",
      "ta me",
      "ta ste",
      "ta ilo",
      "br inging",
      "hu g",
      "hu mor",
      "pr ble",
      "heal ing",
      "spe ech",
      "bi g",
      "bi ke",
      "bi uld",
      "bi oprin",
      "ous ly",
      "differe nces",
      "ill um",
      "la zy",
      "ent rop",
      "iz ed",
      "fi ve",
      "fi ves",
      "fi gu",
      "ge ted",
      "over night",
      "fu turis",
      "gr own",
      "gr oups",
      "stud ent",
      "plan es",
      "plan ting",
      "up dat",
      "up load",
      "vo ice",
      "feel s",
      "cul tur",
      "play er",
      "play ers",
      "hi king",
      "hi erogly",
      "sel ing",
      "trans fer",
      "trans plant",
      "gene tical",
      "fun ny",
      "own ership",
      "contribu tors",
      "adv isors",
      "adv ancement",
      "adv antages",
      "cu its",
      "cu tting",
      "tro pes",
      "function ing",
      "function ality",
      "respon se",
      "rel ated",
      "law n",
      "ack in",
      "log istics",
      "cl ing",
      "cy cling",
      "lim iting",
      "bio tic",
      "bio tics",
      "bio mes",
      "bio engine",
      "ble nd",
      "fac ial",
      "spir ation",
      "make over",
      "make up",
      "person alize",
      "through s",
      "through out",
      "innov ations",
      "innov ators",
      "af fects",
      "tele phone",
      "cr uci",
      "cr ackin",
      "hid ing",
      "sm all",
      "mend ous",
      "sol vent",
      "ques tions",
      "home s",
      "home work",
      "home less",
      "ca ke",
      "ph ics",
      "ph ering",
      "situ ation",
      "recom bination",
      "ong ing",
      "eng ers",
      "fix ing",
      "fix ture",
      "block bus",
      "des pite",
      "des alinate",
      "recommend ation",
      "langu ages",
      "port al",
      "port als",
      "exp and",
      "inter face",
      "inter stell",
      "super food",
      "ben zene",
      "ven s",
      "ven ate",
      "enh ancements",
      "You th",
      "kn it",
      "kn ess",
      "pi pe",
      "pi ano",
      "par ks",
      "par tners",
      "par adig",
      "um inati",
      "motiv ate",
      "cri tical",
      "dr um",
      "dr agon",
      "mach ines",
      "wind ow",
      "est ate",
      "proble ms",
      "achie ving",
      "cast ing",
      "challen ge",
      "individu al",
      "back end",
      "da fe",
      "tal king",
      "won ders",
      "solution s",
      "sustain ing",
      "achieve d",
      "gu y",
      "gu itar",
      "tran spiration",
      "success ion",
      "prin ted",
      "design er",
      "je ctive",
      "je ct",
      "pe t",
      "pe ople",
      "prote ction",
      "prote ct",
      "contro lle",
      "sur ger",
      "sur veill",
      "neuro technology",
      "perspe ctives",
      "analy sis",
      "real m",
      "electr ical",
      "engine er",
      "ob stac",
      "ob jective",
      "pre cau",
      "pre cision",
      "pre vious",
      "revolution ary",
      "train ers",
      "emp ath",
      "discover ies",
      "protein s",
      "superhero es",
      "bur sting",
      "far ming",
      "acid ific",
      "sign aling",
      "socie ties",
      "travel ing",
      "travel ers",
      "key s",
      "try ing",
      "move ment",
      "express ing",
      "pu re",
      "pred ates",
      "wr ng",
      "robo t",
      "begin ning",
      "optim istic",
      "after noon",
      "replic ating",
      "air port",
      "air planes",
      "cat ch",
      "cap ture",
      "cra fting",
      "di ving",
      "di rection",
      "reques t",
      "led ge",
      "celebr ity",
      "experi ence",
      "experi mental",
      "experi encing",
      "fore casting",
      "compound s",
      "astr al",
      "bod ily",
      "ev ent",
      "gar age",
      "lan tern",
      "lan terns",
      "mus cles",
      "sa w",
      "sa me",
      "sa il",
      "sa fety",
      "char ity",
      "char ted",
      "ear ly",
      "equ ation",
      "equ ity",
      "ition al",
      "path ogen",
      "all ows",
      "gener ate",
      "cir cuits",
      "net working",
      "clean ing",
      "electron ic",
      "garden s",
      "ambigu ity",
      "uncertain ty",
      "May ans",
      "happ y",
      "ple asures",
      "ton ight",
      "vac ation",
      "vac uole",
      "ane cdo",
      "ane ously",
      "cook in",
      "tric k",
      "sky diving",
      "signific ant",
      "jo in",
      "pion s",
      "cred ibility",
      "sub ject",
      "sugges t",
      "boo ths",
      "telepath ic",
      "telepath ically",
      "repair ing",
      "rainb ow",
      "Are a",
      "Sh angri",
      "ba ke",
      "econ omy",
      "emb ark",
      "gal ax",
      "hal f",
      "non polar",
      "tar geted",
      "ut ations",
      "vis it",
      "wo ke",
      "wo oll",
      "wo odworking",
      "wing ed",
      "meth ane",
      "orig ins",
      "iso mes",
      "encour aging",
      "proje cted",
      "plas tic",
      "plas tics",
      "ult aneously",
      "need s",
      "appear ance",
      "class ical",
      "explo re",
      "diges tive",
      "break throughs",
      "molecul es",
      "circul ation",
      "pione ered",
      "pione ering",
      "recei ving",
      "legend s",
      "Big foot",
      "Lo rean",
      "clo sets",
      "labor atory",
      "pres erve",
      "sun shine",
      "inst all",
      "rest aur",
      "recogn ize",
      "roo t",
      "deci phering",
      "exc ited",
      "every one",
      "hea vens",
      "vol canoes",
      "confid ential",
      "expe ctations",
      "period s",
      "magic ians",
      "dimension al",
      "numb ers",
      "econom ic",
      "econom ics",
      "ado pt",
      "ado pting",
      "bas king",
      "dre ams",
      "dro ve",
      "dar kness",
      "hun ger",
      "mul ticell",
      "sen sitive",
      "recover y",
      "mess engers",
      "che mosynthesis",
      "colon ies",
      "solu te",
      "tru e",
      "apart ment",
      "share d",
      "geo metry",
      "translat es",
      "hered itary",
      "ball s",
      "crypto curre",
      "nutri ent",
      "friend s",
      "cor recting",
      "cam arad",
      "flo or",
      "hang ing",
      "jum ping",
      "night light",
      "sim ultaneously",
      "show s",
      "val ues",
      "ref lection",
      "ref reshed",
      "ref lecting",
      "tem perature",
      "progr ams",
      "color ful",
      "dete ctive",
      "sea water",
      "polar ity",
      "immor tality",
      "percent age",
      "heli ocentric",
      "integr ation",
      "integr ations",
      "integr ating",
      "high er",
      "drive way",
      "mermaid s",
      "custom ize",
      "custom ization",
      "custom ized",
      "transition ing",
      "magne tic",
      "organization al",
      "pursu e",
      "music ians",
      "asteroid s",
      "multi verse",
      "orchestr ated",
      "Ho la",
      "Ho lmes",
      "ast rophysics",
      "bab ies",
      "bab ysit",
      "fam ous",
      "fra ud",
      "fra mework",
      "fish bowl",
      "glo bal",
      "glo bali",
      "groo ve",
      "groo vy",
      "kind ness",
      "mass age",
      "pine apples",
      "pine apple",
      "sit ch",
      "spo iled",
      "spo tlight",
      "tw re",
      "tw inkling",
      "watch ing",
      "initi ate",
      "initi ated",
      "react ant",
      "react ants",
      "replace ment",
      "meaning ful",
      "lish ments",
      "road s",
      "enjoy ing",
      "sty le",
      "sty lists",
      "prosthe tic",
      "prosthe tics",
      "dem and",
      "dem ands",
      "beau ty",
      "beau tiful",
      "sequ ence",
      "access ible",
      "access ibility",
      "unic orn",
      "unic orns",
      "construc t",
      "construc tion",
      "trouble d",
      "mod el",
      "mod els",
      "shop pers",
      "shop ping",
      "align ment",
      "align ed",
      "appreci ation",
      "appreci ated",
      "haircu t",
      "haircu ts",
      "bud get",
      "bud dy",
      "limit ations",
      "limit less",
      "know ledge",
      "brainstor m",
      "brainstor ming",
      "background s",
      "marshmall ow",
      "marshmall ows",
      "brea ks",
      "brea thed",
      "diagno sis",
      "diagno stics",
      "philosoph ers",
      "philosoph ical",
      "present ation",
      "bowl s",
      "street lights",
      "effici ent",
      "effici ency",
      "Avo gad",
      "Bon jour",
      "Bru ce",
      "Cas 9",
      "De Lorean",
      "Dy son",
      "Dev Ops",
      "Eng lish",
      "Fu ture",
      "For ce",
      "Fib onac",
      "Ill uminati",
      "Jed i",
      "Mend el",
      "Nam aste",
      "Sal utations",
      "Sun day",
      "Sher lock",
      "To day",
      "Tru man",
      "aqu atic",
      "bel onging",
      "bles sed",
      "bath tub",
      "cof fee",
      "cand y",
      "coun seling",
      "emotion al",
      "evol ve",
      "ecst atic",
      "fr ont",
      "fing erprin",
      "fal ling",
      "flor al",
      "flex ing",
      "gam ing",
      "hop e",
      "hors es",
      "kar ma",
      "kit chen",
      "kick in",
      "lus h",
      "luck y",
      "min ute",
      "mis s",
      "mam moth",
      "mir rors",
      "marti al",
      "mist akes",
      "mille nn",
      "nar rate",
      "pan creas",
      "plo tting",
      "pun cture",
      "pas time",
      "piz za",
      "pie ce",
      "rust ling",
      "sou p",
      "sof twre",
      "sli des",
      "sti ll",
      "sco op",
      "squ irrel",
      "sals a",
      "scul pted",
      "saf er",
      "scr atch",
      "senti ent",
      "scen es",
      "tour ism",
      "tack le",
      "umb rell",
      "vin tage",
      "vary ing",
      "wal king",
      "ince ption",
      "invis ible",
      "inclu ded",
      "attr actions",
      "anes thesi",
      "anti biotics",
      "rese arch",
      "resu me",
      "reten tion",
      "recycle d",
      "require ments",
      "reju venate",
      "reinforce ment",
      "thems elves",
      "erad icate",
      "liste ning",
      "limb s",
      "libr arians",
      "tiss ues",
      "roman tic",
      "allo tropes",
      "altern ative",
      "encry ption",
      "docu mentation",
      "streng th",
      "elder ly",
      "cham pions",
      "chef s",
      "choo se",
      "coord inate",
      "veget able",
      "decentr alized",
      "deforest ation",
      "forgot ten",
      "lotter y",
      "becom ing",
      "seas ons",
      "seques tration",
      "accomp lishments",
      "amaz ing",
      "abun dant",
      "absolu tely",
      "unusu al",
      "wirel ess",
      "webs ite",
      "conges tion",
      "consequ ences",
      "conjur ing",
      "trad itional",
      "traf fic",
      "trampo line",
      "spid er",
      "spil led",
      "immut ability",
      "indust rial",
      "creati vely",
      "commer ce",
      "composi tion",
      "supre macy",
      "exper tise",
      "exten ded",
      "execu tion",
      "modif ied",
      "mobi le",
      "nocturn al",
      "distribu ted",
      "dissoci ation",
      "nego tiation",
      "shak in",
      "shoo ting",
      "associ ated",
      "perox isomes",
      "urban ization",
      "quick ly",
      "hologr am",
      "fossil s",
      "mathem atical",
      "import ance",
      "impene trable",
      "buff ers",
      "tailo red",
      "prble m",
      "bioprin ting",
      "illum ination",
      "entrop y",
      "figu res",
      "futuris tic",
      "updat es",
      "cultur al",
      "hierogly phics",
      "genetical ly",
      "bioengine ered",
      "cruci al",
      "blockbus ter",
      "interstell ar",
      "superfood s",
      "partners hips",
      "paradig m",
      "controlle d",
      "surger y",
      "surveill ance",
      "obstac les",
      "precau tions",
      "empath y",
      "acidific ation",
      "pathogen s",
      "anecdo tes",
      "galax ies",
      "wooll y",
      "restaur ants",
      "multicell ular",
      "cryptocurre ncy",
      "camarad erie",
      "globali zation",
      "Avogad ro",
      "Fibonac ci",
      "fingerprin t",
      "millenn ia",
      "squirrel s",
      "umbrell as",
      "anesthesi a"
    ]
  }
}